<pad>	0
</s>	0
<unk>	0
,	-2.74594
s	-3.36589
e	-3.36636
o	-3.36636
<	-3.36644
>	-3.40388
.	-3.63555
-	-3.93969
▁но	-4.33119
▁	-4.80743
;	-4.82928
лэн	-4.83085
▁–	-4.91386
:	-4.95241
лы	-5.04341
▁Кузё	-5.23125
лэсь	-5.25781
Инмар	-5.33046
▁со	-5.40126
ö	-5.43955
▁ке	-5.60551
а	-5.65176
▁понна	-5.65647
ы	-5.69623
▁соос	-5.75782
са	-5.76678
?	-5.81978
н	-5.83379
▁мед	-5.85809
д	-5.87984
▁ик	-5.91835
▁кадь	-5.9252
ын	-5.96303
!	-5.98024
▁«	-5.98674
Кузё	-5.99418
▁Со	-6.00113
▁мон	-6.03577
▁уг	-6.03783
▁вань	-6.05608
м	-6.13224
с	-6.13831
▁вылэ	-6.15425
ез	-6.1569
▁вал	-6.17325
».	-6.1895
▁Мон	-6.21914
▁уз	-6.25459
▁сое	-6.27737
з	-6.2968
ысь	-6.30814
▁Инмар	-6.32904
зэ	-6.34503
▁шуыса	-6.37401
Со	-6.38563
ны	-6.39937
▁тӥ	-6.40306
▁та	-6.40568
▁шуэ	-6.42485
▁луоз	-6.43623
▁монэ	-6.4441
нош	-6.45279
▁сярысь	-6.47521
▁тон	-6.48619
▁ни	-6.49607
▁ӧвӧл	-6.50364
Н	-6.51866
▁нош	-6.5442
▁соосты	-6.54526
зы	-6.549
▁да	-6.55657
▁улон	-6.56361
▁мурт	-6.57933
Инмарлэн	-6.5801
▁пумит	-6.6074
▁музъем	-6.61165
▁доры	-6.621
сь	-6.62982
ме	-6.63364
▁Тон	-6.68292
Мон	-6.75401
Инмаре	-6.76625
ш	-6.78461
ен	-6.79236
▁эн	-6.79791
▁солэн	-6.81188
▁ӧз	-6.81322
эз	-6.82691
▁шуиз	-6.83721
Но	-6.87876
▁мынам	-6.88761
▁уго	-6.89454
й	-6.90287
ты	-6.90805
е	-6.91554
о	-6.929
i	-6.92918
▁улэ	-6.94212
РО	-6.95701
▁вылын	-6.96873
▁тонэ	-6.98964
Тон	-7.01767
▁пыр	-7.03561
▁мыным	-7.04975
>«	-7.08449
▁”	-7.08502
▁азьын	-7.08911
▁улӥсь	-7.09695
ыса	-7.09904
▁адями	-7.10078
со	-7.13291
»	-7.13943
соос	-7.16092
▁ми	-7.16395
«	-7.16853
▁Республика	-7.17201
▁на	-7.17485
мы	-7.18152
▁тазьы	-7.18705
▁шонер	-7.1968
▁улӥсьёс	-7.20392
уго	-7.21445
ды	-7.21447
Уго	-7.21558
Солэн	-7.22148
▁мар	-7.22388
▁трос	-7.22878
▁кулэ	-7.23545
▁гинэ	-7.24133
малы	-7.24455
▁бере	-7.24609
▁ас	-7.26817
Та	-7.27173
▁ӟеч	-7.27205
▁калык	-7.27602
тӥ	-7.2797
▁солы	-7.29017
▁кин	-7.29172
▁Коми	-7.32262
сэ	-7.33295
▁КНИГАЕЗ	-7.33945
▁кыл	-7.34504
Тани	-7.36861
▁туж	-7.37004
тэм	-7.37387
▁пӧлысь	-7.37444
лӧн	-7.37462
▁ӧй	-7.37871
оф	-7.38677
л	-7.38773
▁соослы	-7.38862
▁шуоно	-7.39045
Соку	-7.39198
▁медаз	-7.39754
кызьы	-7.3978
ъёсты	-7.40568
ыны	-7.40901
▁Солэн	-7.41853
▁соку	-7.42953
▁луозы	-7.4315
▁Мынам	-7.43572
▁луы	-7.43791
▁эксэй	-7.44204
▁сюрес	-7.44382
▁пала	-7.44572
▁П	-7.45107
▁тынад	-7.45491
▁луэ	-7.45957
▁закон	-7.46438
”	-7.46659
тэк	-7.47471
▁калыкъёс	-7.48509
эн	-7.48815
тэ	-7.49296
▁шоры	-7.49346
▁тыныд	-7.49606
но	-7.50605
Инмарлы	-7.51234
▁суд	-7.51262
ӧн	-7.51564
Инмарлэсь	-7.52691
▁пӧлын	-7.53607
▁вапумъёс	-7.53909
▁Иисус	-7.55088
ыз	-7.55977
дэ	-7.56493
▁вылысь	-7.57113
аз	-7.57162
▁сьӧлык	-7.57342
Т	-7.57354
ПСАЛ	-7.57476
▁Сава	-7.58245
Э	-7.60573
▁ву	-7.61104
▁нуналэ	-7.61311
Тазьы	-7.62924
▁солэсь	-7.6297
▁уд	-7.63404
Соос	-7.63718
ош	-7.63811
▁улыны	-7.64296
КЛЭ	-7.64606
▁тӥледлы	-7.64623
▁одӥг	-7.64932
ляд	-7.66221
к	-7.66327
И	-7.66432
Тынад	-7.66599
▁Тынад	-7.67682
▁уло	-7.67994
соку	-7.68394
▁бордысь	-7.68561
▁уж	-7.69122
▁бадӟым	-7.70122
▁дун	-7.70463
▁к	-7.70579
▁пумтэм	-7.70719
я	-7.71022
э	-7.71057
▁дорысь	-7.7135
вань	-7.71399
солэн	-7.71521
?»	-7.72137
ъёс	-7.72427
лэ	-7.72639
▁и	-7.73065
т	-7.73252
▁ӵоже	-7.7334
▁озьы	-7.73789
▁тыл	-7.73789
▁син	-7.73998
▁пунэм	-7.74077
▁ужъёс	-7.74989
▁тае	-7.75661
ынэсьтыд	-7.76414
ё	-7.76452
▁кыр	-7.78611
зэс	-7.78812
▁ӵош	-7.78871
▁каре	-7.78887
▁быдэс	-7.79184
▁гажан	-7.79269
Кин	-7.79718
Мынам	-7.80164
”.	-7.81497
Инмарез	-7.81869
▁аслаз	-7.83211
▁каро	-7.83599
▁урод	-7.8383
▁Инмаре	-7.8405
▁с	-7.84051
▁ответ	-7.84342
▁тӥледыз	-7.84408
▁адямиос	-7.84762
▁курбон	-7.85035
▁вӧсь	-7.85141
мон	-7.85955
▁Инмарез	-7.86421
▁м	-7.88007
▁сётӥз	-7.88933
ысен	-7.89298
▁бордын	-7.89506
ӧ	-7.89903
▁отын	-7.90131
▁дыр	-7.90175
▁улоз	-7.90568
ынэсьтым	-7.91596
▁Израиль	-7.91772
–	-7.91861
]	-7.92074
Соин	-7.9287
Аслаз	-7.92909
Р	-7.92913
▁интые	-7.93225
▁ваньмыз	-7.93828
▁луо	-7.95452
▁мукет	-7.95892
▁Солы	-7.96094
он	-7.96739
▁ӧд	-7.96805
▁калыкез	-7.97348
▁тани	-7.97638
▁потэ	-7.97838
Вань	-7.97995
ить	-7.98454
▁Сое	-7.98492
сы	-7.99455
▁быдӟым	-7.99646
ыд	-7.99926
ам	-8.0034
▁асьме	-8.00789
▁вера	-8.00919
!»	-8.00953
А	-8.01594
▁сёто	-8.01672
▁сӥ	-8.01794
тон	-8.02046
Озьы	-8.02197
▁сётэм	-8.02622
Аслэсьтыз	-8.02861
в	-8.02923
▁лэсьтэм	-8.03112
гес	-8.03675
сӧ	-8.0374
▁пумысен	-8.03833
ЛЭ	-8.03856
▁ваньзэ	-8.04133
ъёсыз	-8.04259
р	-8.04963
▁Мынэсьтым	-8.05129
▁борды	-8.05173
▁кар	-8.05829
▁верам	-8.06246
▁дунне	-8.06563
▁кужмо	-8.06789
кыӵе	-8.0718
ТЭ	-8.07387
▁карыса	-8.08344
▁тыр	-8.08525
▁зарезь	-8.09981
▁Тонэ	-8.10149
ӧс	-8.10204
▁сётыса	-8.10928
▁Египет	-8.11536
▁кадесь	-8.11645
▁улэп	-8.12116
▁номыр	-8.12239
▁серти	-8.12543
▁[	-8.1307
П	-8.13657
ыс	-8.13663
▁дыръя	-8.13676
▁музъемез	-8.13705
...	-8.1381
▁сётэ	-8.14027
▁вылаз	-8.1406
Ь	-8.14324
▁выл	-8.14359
ан	-8.14521
ку	-8.14669
▁дорын	-8.14918
▁луиз	-8.14984
▁выль	-8.15172
▁выжы	-8.15213
Коми	-8.15404
▁кыӵе	-8.16097
▁визь	-8.16143
▁кылзэ	-8.16193
▁во	-8.16613
▁кышкасьтэмъёс	-8.16626
▁(	-8.17942
▁вылӧ	-8.18164
та	-8.19394
музъем	-8.19679
▁инты	-8.19978
лям	-8.20082
кайгу	-8.20227
▁нунал	-8.21606
▁курон	-8.21816
лысь	-8.22005
▁пи	-8.22364
▁пиос	-8.225
▁нокин	-8.22605
▁в	-8.22739
Израиль	-8.22787
▁паймымон	-8.23162
Ы	-8.23619
▁улӥз	-8.23787
ОМ	-8.23883
▁бур	-8.23891
З	-8.23998
▁мый	-8.24436
▁из	-8.24477
▁кык	-8.24736
Шонер	-8.24812
▁шат	-8.2506
▁кузя	-8.25078
▁кылъёс	-8.25692
▁бакель	-8.26112
▁лек	-8.26482
▁вуиз	-8.26817
▁утиськон	-8.27019
ИЯ	-8.27134
ысьтыз	-8.27224
▁возьытэ	-8.27373
▁Мыным	-8.27434
▁Т	-8.2763
▁лэсьтыны	-8.28284
ТИ	-8.28398
мын	-8.2855
▁пиез	-8.2858
▁Монэ	-8.28592
▁шуи	-8.28639
есь	-8.28806
ъёссэс	-8.29124
▁оскиськыса	-8.29364
▁ини	-8.30344
ос	-8.30459
Асла	-8.31035
▁улы	-8.3104
▁юн	-8.31214
▁милемыз	-8.31492
▁котыр	-8.31545
М	-8.31935
▁кариз	-8.32221
▁кылем	-8.32221
К	-8.32224
)	-8.32709
▁виноград	-8.32726
▁вераны	-8.3314
яз	-8.33214
▁соин	-8.33394
▁нимыз	-8.33668
▁шуо	-8.33769
▁пеймыт	-8.33984
▁карон	-8.34389
▁Инмарлы	-8.34606
▁город	-8.34684
▁отчы	-8.34883
чылкыт	-8.35052
▁Тыныд	-8.35167
▁кулэтэм	-8.35208
ъя	-8.35336
▁улозы	-8.35583
▁Ас	-8.36219
▁муртэ	-8.36469
▁ме	-8.36568
▁лулы	-8.36821
▁канму	-8.3703
▁тырттэм	-8.37136
▁соослэсь	-8.37386
ъёссэ	-8.38131
▁азьпал	-8.3819
▁эшшо	-8.38227
▁агай	-8.38266
▁аслэсьтыз	-8.38392
у	-8.38619
санэ	-8.38723
▁пӧлы	-8.38748
▁али	-8.3946
▁синазькыль	-8.39464
Кызь	-8.39529
Тӥ	-8.39655
озьы	-8.39878
▁ваньзы	-8.40651
▁ин	-8.4093
Адями	-8.40991
косон	-8.41433
▁Христос	-8.41638
▁Инмарлэсь	-8.41855
на	-8.42209
▁верало	-8.42294
▁муртъёс	-8.42529
▁куректон	-8.4285
▁турын	-8.43041
▁азьвыл	-8.43055
▁юнме	-8.4322
▁пушкын	-8.43247
нӧй	-8.43631
▁югыт	-8.43663
▁быдэ	-8.43961
Сьӧлык	-8.44054
▁азе	-8.44343
▁Россия	-8.4437
С	-8.44575
▁Иерусалим	-8.447
Ми	-8.44713
▁сиён	-8.44814
▁улонэз	-8.44992
▁пыд	-8.45007
▁шу	-8.45122
▁сыӵе	-8.45385
Музъем	-8.45469
Мар	-8.45885
▁вуос	-8.46005
Малы	-8.46063
ъяс	-8.46482
ым	-8.465
▁быгатэ	-8.46734
сэс	-8.46825
ма	-8.4694
В	-8.46945
О	-8.46982
▁лыктоз	-8.47718
▁чылкыт	-8.48401
▁быгаты	-8.48598
▁шуизы	-8.48763
▁йылысь	-8.49016
▁кужым	-8.49105
▁йыр	-8.49682
▁тодэ	-8.50252
кин	-8.50622
▁нянь	-8.50679
Солэсь	-8.50756
ь	-8.50956
▁пудо	-8.51058
▁Но	-8.51649
▁сёты	-8.51778
▁тодытыса	-8.51983
▁кышкатэк	-8.52056
▁шонерлыко	-8.52169
▁тӧлысь	-8.52177
▁ваё	-8.52225
ас	-8.52369
▁ужез	-8.52518
▁адӟон	-8.52614
▁корка	-8.52702
▁Вавилон	-8.53275
ак	-8.53301
г	-8.53312
из	-8.53424
▁К	-8.53486
▁потэм	-8.53781
пумтэм	-8.5386
▁вылӥ	-8.54268
▁кароз	-8.54726
▁гурезь	-8.54758
▁вай	-8.54782
▁улын	-8.54943
и	-8.54995
▁Иуда	-8.5541
▁пиосыз	-8.55514
▁сӥзён	-8.55706
▁лэсьтӥз	-8.55753
▁вераз	-8.5604
▁чебер	-8.56109
▁муртлэн	-8.56135
жалянэз	-8.56173
абыл	-8.56273
▁Израильлэн	-8.56856
▁кескич	-8.57448
▁асьмеос	-8.57578
▁маке	-8.57634
[	-8.57643
▁ӝуа	-8.57845
▁лэсьтэ	-8.57984
▁тӧл	-8.58093
▁пол	-8.58219
▁жаля	-8.5826
▁ук	-8.58387
Аслэсьтым	-8.587
▁вылтӥ	-8.58733
▁табере	-8.59053
Л	-8.59073
▁ожмаськон	-8.59281
▁пушкы	-8.59405
▁улӥзы	-8.59539
▁Давидлэн	-8.59654
▁сётон	-8.59769
»,	-8.59785
▁вае	-8.5997
▁нуналъёс	-8.60052
▁п	-8.60401
▁шумпотыса	-8.60425
▁вина	-8.60765
▁кышкасьтэм	-8.60837
▁дас	-8.60995
▁укылтэм	-8.61286
▁азяз	-8.61469
▁юрӟым	-8.61703
▁ог	-8.61835
▁кудӥз	-8.62121
▁карыны	-8.62129
▁уть	-8.62199
▁кышка	-8.62476
льнӧй	-8.62694
Д	-8.62858
▁меч	-8.63059
▁куд	-8.63463
▁люкет	-8.63579
шектэм	-8.63697
▁а	-8.63824
Ӟеч	-8.63955
▁ужъёсыз	-8.63972
шуэ	-8.64018
▁калыклы	-8.64277
▁эксэйёс	-8.64585
▁Уйба	-8.64839
▁калыке	-8.65127
▁ныл	-8.65331
▁сюлэм	-8.65514
▁нин	-8.66002
▁яке	-8.66594
*	-8.66737
дэс	-8.66824
соин	-8.67185
Ас	-8.67378
▁вуоз	-8.67701
ад	-8.67706
Е	-8.67816
▁сэрен	-8.67943
▁огазе	-8.68027
▁кутыса	-8.6803
▁святой	-8.683
▁лыктэ	-8.68735
▁нуналъёсы	-8.68764
б	-8.69251
▁Юралысь	-8.69465
▁сизьым	-8.69506
▁крезьгурез	-8.69536
▁верасько	-8.6969
сьӧлык	-8.69789
▁асла	-8.69814
▁калыкъёсты	-8.70234
▁потӥз	-8.70786
▁басьты	-8.70806
▁кутскиз	-8.70812
▁пророк	-8.70845
соосты	-8.70862
солэсь	-8.71176
▁ӵожелы	-8.71202
▁таӵе	-8.71215
▁бен	-8.71217
▁ним	-8.71355
▁поты	-8.71422
▁тынэсьтыд	-8.71475
▁верамын	-8.71682
ед	-8.72145
▁ар	-8.72188
▁адӟи	-8.72521
▁шумпотон	-8.72595
▁музъемысь	-8.72598
▁ярамон	-8.72631
▁выжыос	-8.72633
▁каньыллык	-8.72858
▁сётӥсь	-8.72908
▁дуно	-8.73063
▁возе	-8.73652
▁эксэез	-8.74113
▁ческыт	-8.74527
▁асьтэ	-8.74645
▁сётыны	-8.74704
ин	-8.74753
▁муртлы	-8.74879
▁Владимир	-8.74919
сянь	-8.74982
▁емыш	-8.75211
Мынэсьтым	-8.75371
▁визьлык	-8.75453
▁учкы	-8.75629
▁ачиз	-8.76242
▁Святой	-8.76249
▁валче	-8.76262
мед	-8.76442
Израильлэн	-8.7665
▁юрт	-8.76684
▁ул	-8.76773
▁луыны	-8.76791
▁укша	-8.76865
”».	-8.76882
▁кылыз	-8.76909
▁лэсьты	-8.77188
▁нылпи	-8.77478
▁адӟе	-8.77492
ло	-8.77563
▁сётоз	-8.77919
▁кивалтӥсезлы	-8.77927
▁пленэ	-8.78003
▁милемлы	-8.78015
▁Сӥон	-8.78308
▁Дух	-8.78341
ӧм	-8.78766
мынам	-8.78864
▁нуны	-8.79142
СА	-8.7917
▁быгатоз	-8.79349
▁гу	-8.79458
зраиль	-8.7956
мае	-8.79612
Куректон	-8.79619
скӧй	-8.79686
▁ыстӥз	-8.79759
▁каремын	-8.79852
▁удж	-8.80065
▁улӥсьёсты	-8.80163
▁куара	-8.80323
▁луизы	-8.80372
ОН	-8.80431
▁секыт	-8.80443
▁вылӥе	-8.80833
▁тодон	-8.81398
Дунне	-8.81418
Хор	-8.81421
▁Иаков	-8.81526
▁кияз	-8.81726
▁улӥ	-8.81729
мес	-8.81803
Солы	-8.82233
▁кулон	-8.82239
▁луыса	-8.82629
▁улоно	-8.82657
▁ӟечлык	-8.82674
▁лэсьтӥсь	-8.82719
▁бераз	-8.82882
▁куараен	-8.83261
▁Асла	-8.83305
▁Г	-8.83457
осты	-8.83753
Соослэн	-8.84243
▁мынэ	-8.84266
тынад	-8.8428
ваньзы	-8.84676
▁учреждение	-8.85042
▁ньыль	-8.85193
▁кема	-8.85253
▁быдто	-8.85331
▁егит	-8.85334
▁быдтон	-8.85377
▁асьсэ	-8.85384
▁вуэ	-8.85565
▁кышкан	-8.8569
▁куанер	-8.86057
▁шугадӟон	-8.86169
▁эксэйлэн	-8.86428
▁асьмелы	-8.86552
ъёссы	-8.86776
▁шунды	-8.86906
▁вералэ	-8.8709
ъёстэ	-8.87267
▁кутскизы	-8.87415
▁шуозы	-8.87463
▁сьӧры	-8.87555
▁вылазы	-8.87735
▁интыез	-8.87883
Иисус	-8.87935
▁басьтӥз	-8.88552
▁зор	-8.88842
▁пӧртэм	-8.89076
мыным	-8.89285
▁выжыысь	-8.89373
▁интыын	-8.89394
▁кары	-8.89668
▁кизэ	-8.89671
сьтым	-8.89773
▁шонерлык	-8.90341
Иаковлэн	-8.90581
сое	-8.90613
▁ю	-8.90649
▁кыльы	-8.90754
▁музэн	-8.90849
▁социальнӧ	-8.90855
▁огазьын	-8.90875
▁вир	-8.90922
▁адӟыса	-8.91051
▁тодаз	-8.91077
▁учкыса	-8.91151
▁куке	-8.91165
▁улӥсьёслэн	-8.91217
ем	-8.91303
▁берыкто	-8.91374
осыз	-8.91441
▁сётэмын	-8.91526
▁капка	-8.91577
▁республика	-8.91678
ъёстэс	-8.91951
▁сёт	-8.92393
▁киулаз	-8.92508
▁вуэм	-8.92656
▁корказ	-8.92691
ёс	-8.92841
▁уте	-8.92961
▁тушмон	-8.93125
▁тылын	-8.93176
Сое	-8.93293
▁нуналаз	-8.93304
▁сюресэз	-8.93324
оз	-8.93523
шонер	-8.93835
▁поттэ	-8.93926
?”	-8.94297
▁пиослэн	-8.94457
▁кышномурт	-8.94471
▁поттӥз	-8.94567
Эн	-8.94761
▁поттыса	-8.94991
▁куараез	-8.95499
▁став	-8.95581
▁зарни	-8.95681
▁Кин	-8.95684
тыса	-8.95891
закон	-8.95983
▁ветлэ	-8.96268
▁кылзӥське	-8.96285
яс	-8.9637
▁корт	-8.96438
ми	-8.96446
▁мылкыд	-8.96475
▁адӟы	-8.96627
▁лыктӥз	-8.96668
▁сётӥ	-8.96765
▁сютэм	-8.96923
Ж	-8.96961
▁визьмо	-8.97026
▁кельты	-8.97568
▁улэм	-8.97606
▁Та	-8.98054
Ме	-8.98093
▁вӧсяськон	-8.98696
▁утёз	-8.98793
▁вож	-8.98927
Ваньмыз	-8.9911
Сӥон	-8.9915
▁калыклэн	-8.99152
▁быдтэмын	-8.99155
▁дырыз	-8.99251
▁аслыз	-8.99281
▁лыктыса	-8.99311
▁лулме	-8.99413
▁тупаса	-8.99452
▁возён	-8.99573
ла	-8.99619
дано	-8.99669
▁пуктэм	-8.99807
▁сю	-8.99919
▁люкетлы	-9.0001
▁султы	-9.00444
ис	-9.00466
▁Аслэсьты	-9.00538
▁пӧйшур	-9.00869
▁оскон	-9.01004
▁потоз	-9.01054
▁азыса	-9.01337
▁ялан	-9.01355
▁шимес	-9.01391
▁тоды	-9.01488
Монэ	-9.01664
▁гурезьёс	-9.01665
▁вося	-9.01689
▁кужымез	-9.01773
▁Иерусалимын	-9.01832
▁поттэм	-9.01962
▁басьтэм	-9.0198
▁лэсьто	-9.02061
▁кулэм	-9.02142
▁ку	-9.02241
▁узырлык	-9.02251
▁возьматы	-9.02294
вынъёс	-9.02463
Тыныд	-9.02678
▁пинал	-9.0269
▁музъеме	-9.027
▁улӥсьёслы	-9.02958
▁вордӥськиз	-9.03057
▁улӥсько	-9.03101
▁лэзё	-9.03133
▁кылёз	-9.0315
▁азьло	-9.03496
▁луон	-9.03503
▁шарае	-9.03637
▁люкетэз	-9.03708
▁пиосты	-9.03802
▁Дун	-9.03847
▁пон	-9.03955
▁сюрс	-9.04011
▁выжыез	-9.04106
▁кышкаса	-9.04206
▁улод	-9.04219
▁лыкты	-9.04564
▁Веськӧдлан	-9.05129
▁данлык	-9.05167
Г	-9.05408
калгыса	-9.05766
▁АПОСТОЛЛ	-9.05828
▁ӝог	-9.05877
▁данъяса	-9.05973
МА	-9.05989
▁тодад	-9.05989
тӥз	-9.06235
▁Соос	-9.06436
лек	-9.06637
▁ветлы	-9.06784
ке	-9.06802
▁сюй	-9.06863
▁И	-9.06905
▁лулмугор	-9.06941
У	-9.07213
ъёсын	-9.07253
▁шур	-9.0726
▁кырӟан	-9.07509
▁язычникъёс	-9.07542
Тае	-9.07861
▁луысал	-9.0792
Ё	-9.08051
▁выллем	-9.08065
кудзэ	-9.08101
▁куинь	-9.08124
▁вордскем	-9.08263
▁тодозы	-9.08317
▁ӧрекчаськыса	-9.08329
▁ӝоже	-9.08364
▁пырак	-9.08529
▁кылэз	-9.08802
▁нимзэ	-9.08889
▁кылъёсын	-9.09283
▁зэмлык	-9.09302
▁сюлмы	-9.09504
ть	-9.09626
Вавилон	-9.09741
▁ветло	-9.09758
▁дырысен	-9.09935
▁шонере	-9.10026
▁мын	-9.10027
▁вылысьтыз	-9.10066
Египет	-9.10075
▁пайда	-9.10239
СО	-9.10357
▁дорозь	-9.10479
▁дораз	-9.10538
▁ӝужыт	-9.10635
▁ки	-9.10734
▁котькудӥз	-9.10917
▁нимдэ	-9.11054
▁кусып	-9.11236
▁лыктозы	-9.11251
▁пӧйшуръёс	-9.1142
▁йылэ	-9.11437
▁оз	-9.11526
▁верась	-9.11566
▁тырон	-9.11576
▁тонэн	-9.11734
▁Инмарзы	-9.11771
▁Христослэн	-9.12109
2	-9.12137
▁Республикаын	-9.12252
▁ум	-9.12257
▁пуктӥз	-9.12678
▁кылы	-9.12775
▁адӟиз	-9.12866
Ку	-9.1287
▁ымныр	-9.12957
▁быръем	-9.13092
▁утьыны	-9.13094
▁оло	-9.13101
Вылысь	-9.13279
кыр	-9.13379
▁кузё	-9.13402
▁кылзы	-9.13441
”,	-9.13549
Соослы	-9.13697
▁Иудея	-9.13718
▁вылад	-9.13802
▁вожзэ	-9.1397
ӧй	-9.14033
▁ивор	-9.14111
▁шонертэм	-9.14382
▁карись	-9.14625
▁киыз	-9.15103
▁интыяз	-9.15125
▁вайиз	-9.15129
▁пукыӵ	-9.15172
▁No	-9.15412
▁абу	-9.15415
▁улӥсез	-9.15427
▁ыстэм	-9.15431
▁чурыт	-9.15452
▁оскиськымон	-9.1546
▁гожтэмын	-9.15469
▁кышно	-9.15478
▁кышканэн	-9.15488
▁бышкись	-9.15594
мой	-9.15599
▁ӝутэ	-9.15684
▁Инмармы	-9.15732
▁отысь	-9.15753
▁лулзэ	-9.15767
ЛОМ	-9.15852
▁миян	-9.15922
▁т	-9.15996
▁зол	-9.16333
▁потто	-9.16795
▁укшась	-9.1682
▁кие	-9.169
трос	-9.16978
▁бырон	-9.17034
озь	-9.17111
быдэс	-9.17164
▁курадӟон	-9.1718
▁потон	-9.1724
▁яратэ	-9.17335
▁юртэз	-9.17484
▁кошкиз	-9.17641
▁верамзэ	-9.17934
▁утча	-9.17942
▁ж	-9.17951
▁кырӟалэ	-9.17988
▁данъялэ	-9.17993
азы	-9.1811
тӥлесьтыд	-9.18148
▁басьтыны	-9.18269
▁лыктӥзы	-9.18479
ЫС	-9.18529
сьёс	-9.18559
▁адӟем	-9.18633
▁шонерлыкез	-9.18654
кӧд	-9.18736
Ч	-9.18929
▁сы	-9.18989
▁адямилэн	-9.19172
Иерусалим	-9.19429
▁адямиез	-9.19761
▁палэнскы	-9.19921
Кыты	-9.20175
▁борддор	-9.20231
▁лу	-9.20284
▁кушты	-9.20409
▁нырысь	-9.20447
ИЕРЕМИЯ	-9.20608
АВ	-9.20686
▁куаразэ	-9.20691
▁писпуос	-9.2078
▁ӵукна	-9.20879
▁соосын	-9.20892
▁лэсьтыса	-9.21018
▁ассэ	-9.21211
чик	-9.21252
▁Пи	-9.21332
▁вапумъёсы	-9.21388
▁Кылчин	-9.21404
▁книга	-9.21522
▁косӥз	-9.21525
▁нима	-9.21531
ись	-9.21659
▁возьматэ	-9.21715
▁кор	-9.22158
▁понэ	-9.22263
▁ö	-9.22407
▁уй	-9.22417
востэм	-9.22433
▁уллё	-9.22448
Сава	-9.22486
туж	-9.22525
Тонэ	-9.2258
▁ма	-9.2262
▁возьмато	-9.2269
!”	-9.22745
▁сюрессэ	-9.2288
▁азям	-9.22899
▁пӧрмоз	-9.22939
сантэм	-9.23003
▁мозмыты	-9.23158
Ӧ	-9.23174
дон	-9.23305
▁лев	-9.23348
▁сяна	-9.23349
▁викышъяса	-9.23431
▁шуоз	-9.23485
▁пуктон	-9.235
▁престол	-9.23593
▁дӥськут	-9.23611
▁дась	-9.23614
▁сюлмыз	-9.23644
▁уна	-9.23679
▁кошкизы	-9.23705
▁сьӧсь	-9.23761
▁вужер	-9.23783
▁н	-9.23873
▁яра	-9.24457
▁лэсьтон	-9.24464
▁басьтэ	-9.24786
мтэ	-9.25158
▁карисько	-9.25323
▁лул	-9.25666
▁улаз	-9.25825
▁ыджыд	-9.26079
▁куспын	-9.26123
▁ваньбур	-9.26152
▁матэ	-9.26165
ся	-9.26202
▁ужъёссэ	-9.26259
▁киыд	-9.26364
эм	-9.26369
▁сюресъёсыз	-9.26377
▁усёзы	-9.26459
▁Моав	-9.26605
уж	-9.26611
▁луод	-9.26772
▁вераса	-9.27108
▁ош	-9.27225
п	-9.27229
▁ва	-9.27265
▁меда	-9.27299
▁быдты	-9.27625
▁калыксэ	-9.27672
ва	-9.27903
▁салам	-9.27944
мурт	-9.27987
▁Кутӥсь	-9.28081
Ефрем	-9.28108
Мыным	-9.28134
еныз	-9.28274
Эксэй	-9.28335
▁толэзь	-9.28344
▁нылъёс	-9.2839
▁судэ	-9.2841
▁вайись	-9.28618
▁басьтоз	-9.28747
▁дауръёс	-9.28887
▁Федерация	-9.28897
ки	-9.28994
▁сылэ	-9.29029
▁нылпиосыз	-9.29055
▁гольык	-9.29104
▁ласянь	-9.29177
▁Сыктывкарса	-9.29363
▁кытын	-9.29367
▁священник	-9.29374
▁кылъёсыз	-9.29398
▁шорысь	-9.29406
▁пото	-9.29422
▁утьыса	-9.29645
▁улыса	-9.2965
▁йыруж	-9.2969
▁музъемын	-9.29745
▁сылы	-9.29811
▁Моисей	-9.29973
▁пель	-9.30136
.]	-9.30546
▁коть	-9.3056
монэ	-9.30938
Владимир	-9.31052
жалясь	-9.31087
▁пиезлэн	-9.31132
мар	-9.31155
дз	-9.31332
▁басьтон	-9.31338
▁данъяло	-9.31374
▁веран	-9.31432
▁берыкты	-9.31437
Давидлэн	-9.31474
▁кылдытӥз	-9.31523
▁нимыныз	-9.31548
▁учко	-9.31585
▁луонтэм	-9.31702
тозь	-9.31717
сез	-9.31738
▁ноку	-9.31787
▁федера	-9.31884
▁пишты	-9.31901
▁туннэ	-9.32025
▁киын	-9.3205
Законлы	-9.3213
▁адӟисько	-9.32367
▁мечен	-9.32414
эсь	-9.32462
▁бырозы	-9.32555
▁законэз	-9.32565
▁сюлмыныз	-9.32695
▁тодмо	-9.32759
▁202	-9.32921
▁ш	-9.33306
ОВ	-9.33451
эд	-9.33544
▁вожпотонэз	-9.33554
Калык	-9.33844
Трос	-9.33846
зарезь	-9.34088
▁азвесь	-9.3443
▁ляльчи	-9.34437
▁мукетыз	-9.34466
▁тодӥсько	-9.34546
▁Иоанн	-9.34553
▁султӥз	-9.34578
▁чус	-9.34648
нод	-9.34738
ЫН	-9.34798
▁б	-9.34815
▁пыры	-9.34817
▁КНИГА	-9.34914
чылкак	-9.34917
▁куашкатэмын	-9.35099
▁алекъяськон	-9.35141
▁ужаса	-9.35148
▁азьлан	-9.35374
▁Ефрем	-9.35564
▁кылъёсты	-9.35658
▁азязы	-9.35675
▁тӧро	-9.35763
▁берытске	-9.35772
▁карем	-9.35947
▁возьма	-9.35956
сьӧлыктэм	-9.36087
ъёслэн	-9.3622
▁улӥсьлэн	-9.36238
▁малпа	-9.3639
Иуда	-9.36402
▁муртэз	-9.36417
ич	-9.36477
▁асьсэлэн	-9.36495
ог	-9.36747
▁Иерусалиме	-9.36788
Моав	-9.37205
дунне	-9.3721
▁кылэм	-9.37364
▁бызьы	-9.37632
▁карисьёс	-9.37662
▁мынӥз	-9.37691
▁усёз	-9.37754
джык	-9.37977
▁визьлыко	-9.38059
▁пумозяз	-9.38061
▁видз	-9.38076
▁ӧрекчаськон	-9.38103
лань	-9.38109
▁ваёз	-9.38134
▁сиыны	-9.38163
▁нуо	-9.38239
▁улӟы	-9.38274
▁кыло	-9.38355
▁астэ	-9.38514
соослэсь	-9.38741
▁тайӧ	-9.38865
▁зэм	-9.39113
▁ужась	-9.39768
то	-9.39943
▁Аслы	-9.40023
▁возё	-9.40069
▁пукись	-9.40131
▁быры	-9.40402
кенеш	-9.40421
▁Навуходоносор	-9.40524
▁Иосиф	-9.40546
▁лэзьы	-9.40726
жалян	-9.40852
▁пичи	-9.41004
▁кый	-9.41096
▁оскиськисько	-9.41106
▁поттоз	-9.41125
тонэ	-9.41175
▁Ачи	-9.41212
▁зын	-9.41261
Иудей	-9.41268
▁сётӥд	-9.41275
▁кылӥське	-9.41298
▁бордаз	-9.41306
▁вуттэмын	-9.41315
▁Иеремия	-9.41337
▁возьматӥз	-9.41347
тын	-9.41356
▁юкӧнын	-9.4137
НЪЁС	-9.41375
▁сетӧма	-9.41441
▁ушъяса	-9.41472
▁адӟозы	-9.4152
▁мынӥсь	-9.41562
▁интызэ	-9.41616
▁городэз	-9.41764
▁улэмез	-9.41788
Укылтэм	-9.41889
▁адямиосты	-9.42005
▁ужъёсты	-9.42132
▁Соин	-9.42165
ическӧй	-9.42259
▁вуизы	-9.42469
▁зӥбыт	-9.42499
▁тай	-9.42544
▁г	-9.42591
▁ӝуто	-9.42619
▁бер	-9.42717
▁кышкыт	-9.42727
▁басьто	-9.42818
▁одӥгез	-9.42823
мысь	-9.43058
▁пукон	-9.43128
▁пророкъёс	-9.43354
▁пыре	-9.43431
▁поттӥсь	-9.43549
▁Давид	-9.43605
Зэм	-9.43682
Одӥг	-9.43697
▁храм	-9.43777
▁дӥськутэн	-9.43797
ёсты	-9.43975
АР	-9.44166
▁люкало	-9.44233
▁му	-9.44301
▁кылӥз	-9.44421
Кыр	-9.44451
▁ярантэм	-9.44649
▁куштэмын	-9.44725
▁ӝутыса	-9.44739
▁пушкысь	-9.44834
ка	-9.44926
▁тросгес	-9.44946
Собере	-9.4495
▁чакласа	-9.44994
▁нимыд	-9.45011
▁мугор	-9.45074
▁кылъёсме	-9.45088
▁макеос	-9.45141
▁Инмаред	-9.45216
озы	-9.45317
▁ӝикатыса	-9.4532
▁луоды	-9.45367
▁вуэз	-9.45618
▁изьы	-9.45832
▁тушмонъёсы	-9.4588
▁кылдэ	-9.46357
▁кылын	-9.46404
валан	-9.46682
▁кызь	-9.46688
▁тодо	-9.46721
▁луэм	-9.46916
▁вӧй	-9.46966
▁у	-9.46983
іс	-9.47007
▁дыре	-9.47019
▁быгато	-9.47024
▁вуо	-9.47155
▁ветлӥсь	-9.47274
косонъёсыд	-9.47324
▁ыргон	-9.47486
▁Сыктывкар	-9.4762
▁сьӧмкуд	-9.47636
▁Ми	-9.47639
▁интыос	-9.47642
▁сюры	-9.47652
▁пушказ	-9.47677
▁азяд	-9.47679
▁кылдытэм	-9.47719
Визьлык	-9.47954
▁визьзэ	-9.47966
▁морт	-9.48011
▁мында	-9.48016
▁биару	-9.48049
Быдэс	-9.4805
▁вераськись	-9.48058
▁тодам	-9.48064
▁меным	-9.48086
▁чидатэк	-9.48087
Ин	-9.48095
▁собере	-9.4815
▁сьӧлыка	-9.48204
▁быдтыны	-9.48255
адями	-9.48325
▁зэмлыкез	-9.48362
▁улэмзы	-9.48383
▁дыръяз	-9.48411
▁пыдэстэм	-9.48485
Мед	-9.48539
кыл	-9.48579
мез	-9.48622
▁ёртыса	-9.4875
▁кивалтӥсь	-9.48821
▁воӧ	-9.48855
▁зарнилэсь	-9.48933
▁курбонъёс	-9.48968
▁ляльчие	-9.49035
ра	-9.49291
▁ыж	-9.49427
▁лыктэм	-9.49434
тӥсь	-9.4948
▁кинъёс	-9.49483
▁возь	-9.49489
▁монэн	-9.49527
▁инъет	-9.49729
▁ваён	-9.49976
▁сак	-9.503
▁интылы	-9.50382
▁быд	-9.50537
Пие	-9.50537
▁пу	-9.50551
Инмармы	-9.50573
▁утён	-9.50626
▁дуннелы	-9.50712
тани	-9.50791
▁пыдэс	-9.50823
▁кивалтӥсьёс	-9.50835
▁сылӥсь	-9.50862
▁палэнты	-9.50987
▁зэ	-9.5112
▁писпу	-9.51124
▁кельто	-9.51171
▁кулӥз	-9.51198
▁киыныз	-9.51327
▁регион	-9.51402
▁эз	-9.51456
▁дух	-9.51486
лӥзы	-9.51499
▁гома	-9.5155
▁тодӥськод	-9.51581
ЁСЛ	-9.51624
▁олӧмӧ	-9.51634
Вылӥ	-9.51635
▁вӧр	-9.5164
▁спорт	-9.51698
▁дуре	-9.51771
▁атайёсты	-9.51772
СЬ	-9.51799
▁гажась	-9.51852
▁мыныса	-9.51896
▁вуы	-9.51959
Калыкъёс	-9.51986
▁Едом	-9.52005
▁валаны	-9.52269
▁вералозы	-9.52318
▁нуналъёсыз	-9.5234
ыныз	-9.5239
▁дуннеысь	-9.52393
▁киме	-9.52484
▁юнматско	-9.5264
▁лун	-9.5304
▁инбам	-9.53045
▁потты	-9.5315
соослы	-9.53753
▁вайы	-9.53924
▁лэсьтӥсьёс	-9.53965
Б	-9.54004
улон	-9.54019
▁нылыз	-9.54042
▁оскы	-9.54067
Ваньзы	-9.54266
▁маи	-9.54375
▁куалекъя	-9.54401
▁Эксэйлык	-9.54488
▁пукто	-9.54489
▁мылкыдын	-9.54517
▁пӧрмыто	-9.54556
▁улонэ	-9.54621
▁тодма	-9.5482
▁вайыса	-9.54931
музъемлэн	-9.54987
▁кыле	-9.55013
▁сэсся	-9.55325
▁киулэ	-9.55328
▁кужымен	-9.5534
▁адямилы	-9.55353
▁сӥзем	-9.5536
жалянэд	-9.55366
▁пересь	-9.55408
Тайӧ	-9.55418
▁асьсэос	-9.55454
Маке	-9.55465
▁юрттэт	-9.5551
▁улляса	-9.55527
▁возьыны	-9.55527
▁колӧ	-9.55529
▁кутскыса	-9.55613
▁М	-9.55614
▁Инмысь	-9.55634
▁бӧрдэ	-9.55682
▁пуктэмын	-9.55797
▁горд	-9.55911
▁тӥр	-9.55918
▁шӧр	-9.55951
▁изъёс	-9.55974
▁нёжал	-9.56035
▁поно	-9.56073
▁район	-9.56151
▁пум	-9.56249
▁вуозы	-9.56418
▁шедьты	-9.56448
ысьтыд	-9.56492
▁йӧз	-9.56606
▁каризы	-9.56731
косонъёс	-9.57081
урод	-9.57153
▁ым	-9.5716
▁вожпотон	-9.57226
лыко	-9.57377
▁бура	-9.57559
НЫ	-9.57588
▁капкаос	-9.57636
ваньмыз	-9.57685
ӧдз	-9.57817
ий	-9.57963
▁уйвӧт	-9.58014
тим	-9.58083
▁лыкто	-9.58153
▁нуналлы	-9.58157
▁вес	-9.58182
▁инъёс	-9.5826
аслаз	-9.58457
▁са	-9.58546
▁потӥсь	-9.58612
▁оскиськы	-9.58663
Агай	-9.5872
▁шумпотэ	-9.5873
▁пуксиз	-9.58802
▁кырӟало	-9.58802
▁отсӧг	-9.58937
▁мыноз	-9.59019
▁шара	-9.59069
▁серекъян	-9.59141
▁велӧдан	-9.59171
▁экономика	-9.59171
▁вунэты	-9.59189
▁ӝӧк	-9.59189
▁тэльмыр	-9.59189
▁лулыз	-9.59221
▁ӧжыт	-9.59234
▁мыно	-9.59256
веранлы	-9.59274
▁дасям	-9.59371
▁кылъёссэ	-9.59381
▁анаез	-9.59439
▁тодӥсьёс	-9.59476
ӧвӧй	-9.59578
Ма	-9.59611
▁ӟечгес	-9.59622
лӥз	-9.59628
▁сюлэмзы	-9.59635
▁тодыны	-9.59638
▁сокем	-9.5965
▁вылӥын	-9.59873
▁ваем	-9.59908
▁оскиськон	-9.59943
▁адӟизы	-9.60088
▁кылэ	-9.60349
▁янгыше	-9.60401
▁калыкъёслы	-9.6068
▁муртъёсты	-9.60704
ал	-9.60714
▁нылпиос	-9.6094
▁выжые	-9.61044
Кыл	-9.61084
▁калыкед	-9.61084
▁л	-9.61149
▁Эксэй	-9.61369
▁эрик	-9.61583
▁кинлы	-9.61634
▁эксэйлык	-9.61646
▁чаша	-9.61651
▁адӟо	-9.61662
▁муртлэсь	-9.61766
▁люкаськон	-9.61779
▁котькуд	-9.61831
▁кылыса	-9.61932
▁интыысьтыз	-9.61947
▁Кылчинъёс	-9.62142
Ö	-9.62166
Султы	-9.62249
ӝикатыса	-9.62331
▁сильтӧл	-9.62394
Сьӧлыктэмез	-9.62426
калыкъёс	-9.6246
ву	-9.62567
▁ыжъёс	-9.62674
▁ньылоз	-9.62759
Адямиос	-9.62848
▁Исав	-9.62946
▁карид	-9.6303
▁сьӧлыко	-9.63058
▁пукты	-9.63067
▁котьку	-9.63073
▁люкетсэ	-9.63092
▁быдтоз	-9.63164
▁гырпум	-9.63171
Шунды	-9.63171
▁матын	-9.63188
▁дырйи	-9.63223
▁мозмытӥз	-9.63237
▁кивалтӥсьёсыз	-9.63248
ысьтызы	-9.63284
▁юнматэм	-9.63345
▁бодыез	-9.63358
▁мыныны	-9.63371
▁иудейёс	-9.63385
▁шуисько	-9.63393
▁Исаия	-9.63395
▁быроз	-9.63473
▁бӧрдыса	-9.63509
Отын	-9.63612
▁утчаса	-9.63617
вынъёсы	-9.63669
▁кужыменыз	-9.63674
ли	-9.63724
кузьым	-9.6373
▁сьӧлыкъёсты	-9.63764
▁эм	-9.63913
▁кут	-9.63961
▁улысь	-9.64047
▁возьмаса	-9.64074
▁анай	-9.64137
▁кельтэ	-9.64142
▁кылӥ	-9.64456
▁быдэсъя	-9.64567
▁кырсь	-9.64671
▁потыса	-9.6471
ян	-9.64859
▁шулдыръяськон	-9.64875
▁поны	-9.64944
сен	-9.6496
калык	-9.65018
▁луи	-9.65132
Иаков	-9.65211
дан	-9.65359
▁берыктоз	-9.65404
бур	-9.65889
▁данэ	-9.65934
▁улонлэсь	-9.66051
▁дано	-9.66125
жӧ	-9.66232
дун	-9.6634
▁сяська	-9.66364
виноград	-9.66507
адямиос	-9.66507
▁кари	-9.66716
▁вазь	-9.66757
▁поныса	-9.66891
ЕК	-9.66953
▁пӧрмиз	-9.67017
▁Езекия	-9.67033
че	-9.67097
ныд	-9.67196
Шудо	-9.67317
▁медицин	-9.67337
▁пушкам	-9.67337
Мукет	-9.67338
▁тодӥськы	-9.67341
▁тӥледын	-9.67343
Пумтэм	-9.67347
▁возиське	-9.6735
▁боксянь	-9.67362
▁шудыса	-9.67365
▁учке	-9.67383
▁асьтэос	-9.674
▁С	-9.67405
▁умойгес	-9.67424
▁вӧсяськыса	-9.67426
▁пиштӥсь	-9.67443
▁вераськыны	-9.67453
▁кариськыса	-9.67483
▁Кылчинэз	-9.67505
▁кельтэмын	-9.67539
▁кӧня	-9.67578
▁данъялозы	-9.67657
▁ветлыны	-9.67667
▁Тир	-9.67687
▁сюлмазы	-9.67733
Дан	-9.67743
▁берыктон	-9.67785
▁куараме	-9.67785
▁ошмес	-9.67861
▁югытэз	-9.67926
▁буре	-9.67929
▁не	-9.67929
▁верай	-9.67935
▁визьлыкез	-9.6797
▁таиз	-9.68049
▁киулазы	-9.68112
▁пеймытлык	-9.68157
ынызы	-9.68169
▁ужзэ	-9.68368
▁дася	-9.68438
▁ваты	-9.68592
▁ужъёссы	-9.68624
лун	-9.68714
▁лэсьтэмын	-9.68765
▁асьсэлы	-9.68927
>[	-9.69009
ъёслэсь	-9.69091
ович	-9.69122
▁ӧр	-9.69128
▁берыктэ	-9.6914
▁пуктэ	-9.69215
ллям	-9.69252
ным	-9.69571
овна	-9.69713
▁вӧйын	-9.69895
▁берытскы	-9.69915
▁усён	-9.69926
▁чидан	-9.70023
▁выжызэ	-9.70024
▁аръёс	-9.70101
ч	-9.70165
▁священникъёс	-9.70167
▁пал	-9.70306
▁возись	-9.70314
одӥг	-9.7035
Аслэсьты	-9.70453
ко	-9.70699
▁умой	-9.70709
▁киулысьтыз	-9.70749
▁йӧзлы	-9.70775
нянь	-9.70791
Россия	-9.70854
кудӥз	-9.70864
▁косон	-9.70874
отын	-9.71032
▁Е	-9.71066
▁ышоз	-9.71128
▁сульдэр	-9.71142
тынэсьтыд	-9.71163
▁лунӧ	-9.71392
▁Иов	-9.71393
▁висён	-9.7145
тыны	-9.71465
▁проект	-9.71497
▁дэлет	-9.71501
▁валан	-9.71511
▁сие	-9.71595
▁быриз	-9.71598
▁ымысьтыз	-9.716
▁пыриз	-9.71628
▁шуэм	-9.71642
Эшшо	-9.71685
Кема	-9.7169
▁пыдди	-9.71695
атайтэм	-9.71704
▁уродлык	-9.71713
▁азьысь	-9.71724
▁адӟемпотостэм	-9.71818
Уг	-9.71831
▁кутыны	-9.71846
▁курисько	-9.71854
▁тэрытскыса	-9.71887
▁огназ	-9.7189
ськыса	-9.71919
▁ёна	-9.71949
▁нуналыз	-9.71981
лоз	-9.71987
▁ветлозы	-9.72038
▁луонэз	-9.72038
▁быт	-9.72069
▁доръя	-9.72079
▁вайыны	-9.72099
▁синъёсыз	-9.721
▁ужъёсыд	-9.72158
▁пуке	-9.72332
▁куспа	-9.72354
▁пилемъёс	-9.72367
▁аслэсьтым	-9.72372
▁ад	-9.72376
▁басьтозы	-9.72436
▁султон	-9.72439
▁пизэ	-9.72468
▁ваньбурез	-9.72578
▁У	-9.72617
▁Иерусалимысь	-9.72678
▁юртаз	-9.72789
▁нуись	-9.72804
▁сям	-9.73134
▁тырыса	-9.73225
▁дышеты	-9.73513
,]	-9.73598
▁дор	-9.73651
▁мен	-9.73667
▁Л	-9.73675
▁ӧм	-9.73893
▁шобрет	-9.74027
▁калыкелэн	-9.74097
▁коркаос	-9.74364
▁кидыс	-9.74459
▁аръёсы	-9.74593
солы	-9.74836
▁ваньды	-9.74992
▁атай	-9.75033
▁киы	-9.75107
ет	-9.75124
куректон	-9.75203
куз	-9.75205
▁инмаръёс	-9.75235
▁ушъян	-9.75243
▁вӧл	-9.75262
▁ожмаськ	-9.75341
шӧр	-9.7535
Ливан	-9.75378
ёртыса	-9.75391
котькудӥз	-9.75402
куар	-9.75437
тыршыса	-9.75452
▁тылобурдоос	-9.75584
▁куро	-9.75634
ӧсь	-9.7569
▁йыл	-9.75737
▁ортчем	-9.75797
▁шудо	-9.75804
▁нуиз	-9.75878
▁водз	-9.75884
▁аслэсьты	-9.75963
асьмеды	-9.75966
▁шӧрин	-9.76007
▁берытскоз	-9.76028
▁начар	-9.76029
▁сиёз	-9.76031
▁нырысетӥ	-9.76034
▁виын	-9.76065
ЪЁС	-9.7608
▁венец	-9.76117
▁ӵын	-9.76126
▁кышноез	-9.76168
▁тшӧктӧм	-9.76189
Кыӵе	-9.76231
▁коронавирус	-9.76231
▁куалекты	-9.76231
▁лунся	-9.7624
▁Федя	-9.76253
▁сюресъёс	-9.76269
ады	-9.7627
▁оскиське	-9.76275
▁тӧдьы	-9.76291
ӧні	-9.76294
▁шудоесь	-9.76316
ана	-9.76402
▁юкӧнса	-9.76407
▁Юралысьлӧн	-9.76417
▁кырӟаса	-9.76444
>”	-9.76459
▁1	-9.7648
▁уйин	-9.76516
▁утись	-9.76531
▁вуэн	-9.76602
▁кудъёсыз	-9.76659
▁городъёс	-9.7672
▁шундыӝужан	-9.76761
▁дурын	-9.76779
▁луэмын	-9.76858
▁Духез	-9.76864
▁пус	-9.76877
▁вашкала	-9.76884
▁нимо	-9.76909
▁ньӧл	-9.7691
▁кузьымъёс	-9.76954
▁сьӧрын	-9.77083
▁яратӥсьёс	-9.77173
▁бакча	-9.77476
▁ӧс	-9.77693
ти	-9.77949
▁кисьто	-9.77978
▁эксэйлы	-9.78014
ой	-9.78055
▁шуис	-9.78098
нас	-9.78121
▁от	-9.78276
▁малпаськы	-9.78359
▁нуналэз	-9.78465
і	-9.78568
▁сад	-9.78738
ъяськыса	-9.79035
▁янгыш	-9.79259
суд	-9.79385
▁нуэ	-9.79541
▁ваньзэс	-9.79576
▁ӧти	-9.79596
▁тэ	-9.79679
▁утчало	-9.79733
▁калыкме	-9.80009
▁ло	-9.80025
▁вазисько	-9.80067
Оскон	-9.80081
гурезьёс	-9.8009
▁тодмет	-9.8012
▁палаз	-9.80156
▁кузьым	-9.80168
Мын	-9.80221
пурт	-9.80472
▁йыркур	-9.80484
▁малпан	-9.80498
▁усьтӥз	-9.80626
▁лэзиз	-9.80639
▁шораз	-9.80644
▁куштӥськы	-9.80727
▁шедьтэ	-9.80735
▁яратон	-9.8075
▁кулоз	-9.80769
▁лэсьтӥд	-9.80829
▁ӝутоз	-9.80896
▁данлыкез	-9.80903
▁емышсэ	-9.80932
ЕЙ	-9.8096
▁возьмась	-9.80974
Тӥледлы	-9.80992
−	-9.80992
▁Президент	-9.80993
▁тӧдчана	-9.80994
▁кылӥськы	-9.80996
Табере	-9.80998
▁овмӧс	-9.80999
▁сета	-9.81007
▁бӧрсьы	-9.81015
▁ичӧт	-9.81017
▁берам	-9.81042
▁дышетонэз	-9.8109
▁Иордан	-9.81138
▁лыос	-9.81142
▁таркамын	-9.81232
▁кур	-9.8124
▁дуннее	-9.81257
огзы	-9.81276
▁шуиськоды	-9.81293
▁Воркута	-9.81345
▁кутскозы	-9.81389
▁бӧрдон	-9.81394
▁эрикез	-9.81416
▁кыдёкысь	-9.81437
▁данэз	-9.8145
▁калыктэ	-9.81473
▁кутске	-9.81521
▁ветлӥсьёс	-9.81639
▁кышномуртъёс	-9.81775
▁бордысен	-9.81804
ылӥзы	-9.81819
▁кун	-9.81924
▁уродэз	-9.81983
нокин	-9.81988
▁усем	-9.82247
▁сыл	-9.82359
▁будос	-9.82606
▁тузон	-9.82876
▁сётозы	-9.82905
▁адӟисьёс	-9.83001
▁пиосмурт	-9.83023
▁умме	-9.83073
▁сьӧлыкез	-9.83133
▁веразы	-9.83146
укыр	-9.83155
салзы	-9.83393
▁бича	-9.83409
▁дугды	-9.83422
▁В	-9.83518
пыд	-9.83653
▁кужымъёс	-9.83777
▁шорын	-9.84387
пу	-9.84424
ьнӧй	-9.84665
Иудея	-9.84751
▁усьы	-9.84751
▁синъёсы	-9.84802
▁кол	-9.85028
▁эш	-9.85079
▁уродзэ	-9.85089
Дун	-9.85115
пунэм	-9.85165
▁утчасьёс	-9.85195
▁изгурезь	-9.85199
ожмаськон	-9.85218
▁сюлэмо	-9.85277
ӥсь	-9.85281
▁пилем	-9.85349
▁кӧт	-9.8557
енызы	-9.85613
▁сьӧраз	-9.85622
▁юа	-9.85645
▁сюлмаз	-9.8566
▁городэ	-9.85662
▁быдтӥз	-9.85687
▁видзан	-9.85745
▁кариське	-9.85746
мыс	-9.8591
▁органъяс	-9.8596
▁серем	-9.85996
▁кыдзи	-9.8601
▁оске	-9.86014
▁бызись	-9.86016
▁ньылетӥ	-9.86017
сьӧсь	-9.8602
Сьӧлыктэм	-9.86023
▁том	-9.8603
▁туй	-9.86038
▁паськыт	-9.86079
▁мозмытоз	-9.86089
▁ватэмын	-9.86101
▁каньылэн	-9.86124
ОР	-9.86138
Улон	-9.86139
▁кодъяс	-9.86147
▁вить	-9.86153
▁ватӥськыса	-9.8616
▁улыку	-9.86164
▁кариськод	-9.86165
▁шумпотонэн	-9.86171
▁гажаса	-9.86184
▁султо	-9.86221
▁майбыр	-9.86233
▁Петр	-9.86269
▁духез	-9.86349
▁сетіс	-9.86377
▁ватӥськон	-9.8638
▁адӟыны	-9.86386
▁сьӧлыкъёсыз	-9.86412
▁сэрег	-9.86418
▁киыныд	-9.86443
▁Самария	-9.86452
▁Израилез	-9.86476
▁вералоз	-9.86484
▁йыркурез	-9.86488
▁кужымзэ	-9.86514
▁кыре	-9.86596
▁поттон	-9.86711
ӧны	-9.86755
▁лэзем	-9.86774
▁ужъёссэс	-9.86797
▁верамме	-9.86806
▁арбериос	-9.86922
▁боды	-9.86952
▁улонэд	-9.86957
▁сьӧлыкъёс	-9.87025
▁беразы	-9.8704
▁интызы	-9.87062
▁муртъёсыз	-9.87127
▁ляльчиед	-9.87298
▁ӝутскоз	-9.87299
коть	-9.873
▁тыршыса	-9.8739
▁султыса	-9.87399
▁толэзьлэн	-9.87541
▁дуннеын	-9.8756
▁УЛ	-9.87932
▁сыло	-9.88053
▁щит	-9.88088
изы	-9.88122
▁2	-9.88219
мзы	-9.88329
▁вите	-9.88391
▁сь	-9.88391
сны	-9.88403
оссэс	-9.8845
▁лыктӥсь	-9.88587
▁пинь	-9.8865
▁ур	-9.88764
му	-9.88801
▁тырше	-9.88968
▁Ассирия	-9.89006
Нунал	-9.89017
лык	-9.8912
▁пиезлы	-9.89152
▁султэ	-9.8934
▁дышетон	-9.89684
▁муртъёслэн	-9.89689
▁усьты	-9.89704
ар	-9.89715
кар	-9.89838
быроз	-9.90163
▁сиё	-9.90197
▁визьмын	-9.90234
-19	-9.90358
азьлан	-9.90484
куке	-9.90491
курон	-9.90541
▁нимы	-9.9057
▁винаен	-9.90592
▁бӧрдо	-9.90615
▁ваньмызлы	-9.90723
▁дан	-9.90728
огез	-9.90731
▁берытско	-9.90747
▁ужъёсын	-9.90782
лекез	-9.90795
Визьлыко	-9.90848
▁кӧтсэ	-9.90918
▁бызё	-9.9092
тоз	-9.90933
▁кутскоз	-9.90988
▁лыктон	-9.91001
▁кыкетӥ	-9.91019
▁юнматэ	-9.91024
тыныд	-9.91029
▁А	-9.91067
▁ысто	-9.91086
▁шумпотоз	-9.91094
Урод	-9.9117
ъёсыныз	-9.91212
▁пытьы	-9.91246
▁пуш	-9.91253
▁веськӧдланін	-9.91256
ациона	-9.91257
Котькудӥз	-9.91261
▁малпало	-9.91284
▁школа	-9.9131
▁ӟардон	-9.91312
▁дурысь	-9.91324
▁тодӥсьтэм	-9.91327
▁будэтӥсьёс	-9.9134
▁бӧрдэм	-9.91365
▁сантэман	-9.91375
▁бӧрдыны	-9.91382
▁кыдёкын	-9.91391
▁ӧжытак	-9.91399
▁мур	-9.91428
▁пуштроссэ	-9.91473
▁ачид	-9.91496
▁визьнодчиос	-9.91506
▁бӧрдозы	-9.91528
▁вуоно	-9.91581
▁тубы	-9.91632
вынъёсыз	-9.917
▁иворто	-9.91891
▁луд	-9.91929
визь	-9.9197
▁мынозы	-9.9198
▁кизилиос	-9.91989
▁интыязы	-9.92081
▁адямиослэн	-9.92208
▁тш	-9.92226
▁басьтыса	-9.92261
▁мадён	-9.92276
▁узыр	-9.92303
▁котырын	-9.92527
▁кылыд	-9.92654
▁сюлэмме	-9.92794
кы	-9.928
▁огзы	-9.93064
»;	-9.93251
выл	-9.93442
▁ивортэ	-9.93455
▁тросэз	-9.93544
▁кужыме	-9.93595
▁возьы	-9.93623
▁кисьтӥз	-9.93711
▁сьӧм	-9.93719
▁таос	-9.93784
▁зурка	-9.93897
ст	-9.93983
ката	-9.93991
▁час	-9.94051
▁утьы	-9.94088
▁кӧ	-9.94194
ф	-9.94208
▁емышез	-9.94285
▁ӧрекч	-9.94297
ж	-9.94358
▁куарадэ	-9.94511
ияса	-9.94547
▁чида	-9.94576
кись	-9.94633
▁улысал	-9.94913
юон	-9.94987
Давид	-9.95175
▁адямиослэсь	-9.95524
кытын	-9.95876
▁тылобурдо	-9.95923
▁яратонэ	-9.95949
номыр	-9.9598
вӧсь	-9.96084
Ваньзэ	-9.9618
утӥськись	-9.96183
живот	-9.962
▁пӧсь	-9.96329
▁кыллё	-9.96379
косонэз	-9.9644
▁улонэн	-9.96459
▁тырмы	-9.9648
▁усиз	-9.96482
Египетысь	-9.96688
Зарезь	-9.96709
▁тӥрлык	-9.96713
▁дзоньвидзалун	-9.96769
▁кӧс	-9.96775
▁возьматоз	-9.96799
Аллилуия	-9.96811
▁подув	-9.96811
▁статья	-9.96811
▁пасйис	-9.96811
▁ӝыны	-9.96811
▁озырлун	-9.96811
АХ	-9.96843
▁ярамонэсь	-9.96844
▁сӧвмӧдан	-9.9685
тэмын	-9.96862
▁нуналозь	-9.96873
▁усьтэ	-9.96873
▁азон	-9.96885
▁ай	-9.96899
▁лэчыт	-9.96902
▁Авраам	-9.9691
▁лэсьтоз	-9.9692
▁арӧс	-9.96929
▁Лёнька	-9.96934
▁пай	-9.96944
▁яратоно	-9.9695
▁гозы	-9.96965
▁ӧрӟи	-9.96983
▁милемын	-9.96986
▁кивалтэ	-9.96997
▁атайёссы	-9.97004
▁кужмоесь	-9.97062
▁ушъялэ	-9.97072
▁городъёсыз	-9.97111
▁йылын	-9.97126
▁Соломон	-9.97128
▁аслым	-9.97138
▁кытчы	-9.97217
вордэм	-9.97232
калгись	-9.97313
▁нуназе	-9.97328
▁адӟид	-9.97374
▁Наташа	-9.97395
▁верано	-9.9741
▁шумпотозы	-9.97414
▁кышкасьтэмъёсты	-9.97664
▁гурезьысь	-9.9779
▁возисьёс	-9.97824
▁интыысь	-9.97865
сэтӥ	-9.97932
шта	-9.98058
▁ваёзы	-9.98088
▁кузёяськы	-9.98254
▁вала	-9.98272
Ш	-9.98287
▁быгатысал	-9.98321
сал	-9.98336
▁вазиськи	-9.98336
▁возьмаськисьёс	-9.98347
▁визьнодо	-9.98406
▁лэсьтӥзы	-9.9847
▁канжаськы	-9.98486
лозы	-9.98568
ась	-9.98831
▁Духен	-9.98847
▁шуръёс	-9.9888
▁кылдытӥсь	-9.99017
▁Египетэ	-9.99017
▁улля	-9.99072
кужмо	-9.99128
▁кулэмъёс	-9.99172
▁дырты	-9.99238
▁Христослэсь	-9.9932
▁макелы	-9.99442
▁люкам	-9.99455
ъёсыд	-9.99615
▁сюр	-9.99678
▁Р	-10.0007
▁сьӧлыке	-10.0014
ныз	-10.0023
▁ӵог	-10.0028
▁пот	-10.003
куанер	-10.004
▁инмар	-10.004
▁кос	-10.0055
▁кинэ	-10.0062
▁сут	-10.0064
▁ужа	-10.0072
▁могмӧда	-10.0078
▁юбо	-10.008
▁ожгарчиос	-10.0081
▁яратӥсь	-10.011
Ю	-10.0114
▁луись	-10.0125
▁лэсьтӥ	-10.0127
▁эрике	-10.0135
▁тырмыт	-10.0138
▁кылзӥськы	-10.0141
мзэ	-10.0153
▁атаез	-10.0158
вина	-10.0163
▁шумпото	-10.0175
▁утё	-10.0176
▁вераськы	-10.0176
Таӵе	-10.0177
▁кылзӥськыса	-10.0184
вашкала	-10.0185
егит	-10.0186
▁покчи	-10.0187
Оло	-10.0189
косонъёстэ	-10.0199
▁воргоронъёс	-10.0199
яке	-10.0203
ыж	-10.0207
▁вапум	-10.0216
▁кузяз	-10.0229
▁лыосы	-10.0231
▁понӥз	-10.0238
Х	-10.0239
▁кельтӥз	-10.0241
▁зарезе	-10.025
▁лэсьтӥсько	-10.0254
Город	-10.0255
▁капчи	-10.0259
▁возёз	-10.0265
Азьтэм	-10.0269
▁служба	-10.0269
▁тӧдчӧдіс	-10.0269
▁ӝуатскиз	-10.027
Учкы	-10.027
ИИЛ	-10.027
▁медводдза	-10.0271
▁полэс	-10.0272
▁кошко	-10.0273
▁пачылмемын	-10.0274
▁дорӧ	-10.0274
ТӤСЬ	-10.0275
▁учкелэ	-10.0276
▁бурпалаз	-10.0276
▁тӧв	-10.0277
▁сӥль	-10.0279
▁смоквапу	-10.028
▁чебересь	-10.0282
▁яраё	-10.0282
▁лушкеме	-10.0282
▁горшок	-10.0283
▁вордӥськем	-10.0283
▁нуэмын	-10.0284
▁дугдылытэк	-10.0285
▁кышкалэ	-10.0288
▁бордысьтыз	-10.0288
▁зыно	-10.0289
▁адӟиськод	-10.0289
▁вайёсыз	-10.0292
▁киосме	-10.0294
▁азьысьтыз	-10.0294
▁вылам	-10.0298
▁осконэз	-10.0305
▁халдейёс	-10.0306
▁бадӟымесь	-10.0309
▁кылизы	-10.0312
▁Ассур	-10.0313
▁си	-10.0313
▁ӟечлыко	-10.0314
▁улӥськод	-10.0317
▁шуыны	-10.0319
▁эксэйёсты	-10.0322
▁мукетсэ	-10.0322
▁учкыны	-10.0328
Кескич	-10.0329
росс	-10.0333
▁сиёзы	-10.0334
еныд	-10.0341
мукет	-10.0342
▁тушмонъёсыд	-10.0343
▁мынӥзы	-10.0343
ськод	-10.0345
▁Пиез	-10.0355
инмысь	-10.0371
▁апостолъёс	-10.0379
Милем	-10.0379
▁кужмы	-10.0379
▁кидэ	-10.038
▁Ливан	-10.0381
▁пумъёс	-10.0383
▁ӟечсэ	-10.0392
▁пась	-10.0397
▁ка	-10.0399
▁ужам	-10.0409
▁ымнырзэ	-10.0427
▁кужмоос	-10.0428
▁йыркурен	-10.0433
▁юрттэ	-10.044
▁ошъёс	-10.0442
▁вӧйпу	-10.0444
▁дуннеез	-10.0447
▁пие	-10.0448
▁визьма	-10.0452
▁олысьяс	-10.0488
асьтэ	-10.0493
▁кенеш	-10.0496
▁лыдъя	-10.0501
Си	-10.0524
▁юнматы	-10.0542
▁карозы	-10.0569
бырон	-10.057
▁ушъя	-10.0595
▁сапта	-10.0601
▁палэнске	-10.0614
▁валъёс	-10.0615
▁Б	-10.0627
▁вазиськы	-10.0628
▁сётӥзы	-10.0631
▁вирен	-10.0635
▁уллёос	-10.0649
”;	-10.0652
▁пумо	-10.0653
▁ворса	-10.0664
▁шуы	-10.0683
▁понд	-10.069
▁пыро	-10.0698
▁олысьяслы	-10.0718
▁азинлык	-10.0719
тӥд	-10.0722
▁толэзе	-10.0725
▁кельтэм	-10.0726
▁кисьтэ	-10.0729
лул	-10.0741
идолъёс	-10.0767
▁кушто	-10.0773
ль	-10.0779
▁пельдэ	-10.0784
▁бӧр	-10.0793
▁матысь	-10.0796
Иов	-10.0799
▁кошкем	-10.0803
Быдӟым	-10.0806
паймымон	-10.0811
возьытэ	-10.0811
шумпотыса	-10.0812
▁власьт	-10.0814
тупаса	-10.0816
горд	-10.0819
аслэсьтыз	-10.082
▁быдтэ	-10.0829
▁вӧсяськисьёс	-10.083
▁вылыс	-10.0831
сюлмыныз	-10.0838
▁эксэе	-10.0846
▁Ивор	-10.0847
▁ачи	-10.0848
▁утчась	-10.0851
овалы	-10.0854
▁кариськы	-10.0854
▁погырто	-10.0859
▁нылпиоссы	-10.0862
▁тшупӧд	-10.0865
бырозы	-10.0865
▁кузёе	-10.0866
▁малпасько	-10.0866
▁куалекъяло	-10.0868
косонъёссэ	-10.0872
▁сюроз	-10.0872
▁висъя	-10.0885
ӤСЬ	-10.0889
▁КЫРӞАН	-10.0894
▁муниципал	-10.0895
▁почёт	-10.0895
▁зырӟыса	-10.0895
▁сьӧд	-10.0895
▁унджык	-10.0895
▁быдэсмоз	-10.0895
Курон	-10.0895
Мурт	-10.0896
▁2021	-10.0896
Гурезьёс	-10.0896
Асьсэ	-10.0897
▁адӟиське	-10.0897
▁дыръям	-10.0899
Кудӥз	-10.0899
▁менам	-10.0901
▁утиськонэ	-10.0902
▁знамя	-10.0903
▁сямо	-10.0905
ырыт	-10.0905
▁Эксэез	-10.0907
▁кышноос	-10.0909
▁сюлворыса	-10.0909
▁куашкам	-10.091
▁быдэстыны	-10.0911
▁калыкен	-10.0913
▁зарезез	-10.0915
▁ӝутӥське	-10.0916
▁ӝутэмын	-10.0918
▁татчы	-10.0918
▁ымнырдэ	-10.0922
▁поттыны	-10.0924
▁сюлэмзэс	-10.0928
▁лушкемлык	-10.094
▁быдэсъяса	-10.0943
▁выжыяз	-10.0951
музъемез	-10.0952
▁огды	-10.0953
▁лымшор	-10.0954
▁лулзы	-10.0961
▁ӧт	-10.0964
▁куаразэс	-10.0965
▁гуръёс	-10.0967
▁йырзэ	-10.0967
▁потыны	-10.0967
▁куаразы	-10.0975
асла	-10.0976
Иудалэн	-10.0976
Инмармылэн	-10.0978
▁вайисьтэм	-10.0981
▁директор	-10.0983
▁кылъёсы	-10.0983
▁шонересь	-10.0988
▁басьтоно	-10.0989
▁пырон	-10.0993
▁калыкъёслэсь	-10.0998
▁вайизы	-10.1001
▁кылёзы	-10.1006
асны	-10.1006
▁дасяз	-10.1006
тш	-10.1018
▁люка	-10.1034
▁потозы	-10.1037
▁мылкыдоос	-10.1041
▁потэмын	-10.1042
▁шуэмын	-10.1043
▁кулы	-10.1049
лӥ	-10.1071
▁лёга	-10.1076
Инъёс	-10.108
▁быре	-10.1087
▁юбоос	-10.1087
▁кисьтэм	-10.1089
▁пукисьёс	-10.1099
дыз	-10.1117
▁калыклэсь	-10.1118
▁котыраз	-10.1123
▁кышномуртлэн	-10.1157
▁соиз	-10.1175
▁улӥсьёслэсь	-10.1184
▁Александр	-10.1188
▁ӝутӥсько	-10.1188
ИС	-10.119
▁кот	-10.1195
▁юртлэн	-10.1197
шугадӟон	-10.1201
Ф	-10.1206
▁арес	-10.1211
▁лысву	-10.1212
тӥськод	-10.1234
▁берыктӥсь	-10.1243
ытэк	-10.1243
Иерусалимез	-10.1247
▁тодытӥсь	-10.1247
ре	-10.1255
ӟеч	-10.1255
▁кышкасьтэмлэн	-10.1255
▁дышетыса	-10.1262
▁ымзэ	-10.1264
ыт	-10.1265
▁жаляса	-10.1265
▁кошкись	-10.1269
▁дум	-10.1275
▁оскись	-10.128
▁быронэ	-10.1293
ей	-10.1295
эксэй	-10.1309
▁лыктӥ	-10.1311
▁возьмасьёс	-10.1312
▁данъя	-10.1317
▁сётъя	-10.1323
▁возисько	-10.1324
ъёсме	-10.1324
▁уджсикас	-10.1339
▁Иудалэн	-10.1364
▁шайгуэ	-10.1364
▁аслы	-10.1374
▁бурд	-10.1381
кост	-10.1399
▁ватыса	-10.1411
▁Инмарды	-10.1414
▁бусы	-10.1416
укылтэм	-10.1422
▁эксэйзэ	-10.1423
▁лыд	-10.1437
▁кысы	-10.1447
▁вӧзы	-10.1447
▁пуко	-10.145
Асьме	-10.1468
гажан	-10.1478
отчы	-10.1478
улоно	-10.1491
да	-10.1506
▁Даниил	-10.1509
▁тэрытскы	-10.1512
ер	-10.1516
▁юнматӥз	-10.1519
▁куасьмиз	-10.1524
0	-10.1524
▁шобыртоз	-10.1526
▁ыштэм	-10.1533
▁ӧвӧлтэм	-10.1533
▁куштӥз	-10.1539
▁котыртӥз	-10.154
▁пазьго	-10.154
▁Ӟ	-10.154
▁инфекция	-10.1542
▁Са	-10.1544
▁лушкем	-10.1554
Лулы	-10.1557
ідз	-10.156
▁азьтӥ	-10.156
▁лякыт	-10.156
Бадӟым	-10.1561
Сыӵе	-10.1561
l	-10.1561
▁связь	-10.1561
▁сомында	-10.1561
▁вамен	-10.1561
▁пошта	-10.1561
▁азьысьтым	-10.1563
▁кылиз	-10.1563
тонэн	-10.1563
▁олысьясӧс	-10.1564
▁асьмемыз	-10.1565
▁эг	-10.1565
▁бордам	-10.1565
▁сюлмам	-10.1565
▁тушмонъёсыз	-10.1566
тет	-10.1566
▁бӧрся	-10.1566
▁нуоз	-10.1568
▁барыш	-10.157
▁паллян	-10.157
ЕС	-10.1571
▁нюлэс	-10.1571
▁ӝыт	-10.1575
▁кидысэз	-10.1577
▁таркалозы	-10.1578
▁лэзёз	-10.1578
▁сюлмыным	-10.1579
▁Мария	-10.1579
▁усьтыны	-10.1582
законл	-10.1583
▁карытэк	-10.1585
▁юртысьтыз	-10.1586
▁синъёссы	-10.1587
▁уйпалась	-10.1588
▁Ирод	-10.1588
▁кылоз	-10.1588
▁вазиськисько	-10.1589
▁ыжъёсты	-10.159
▁законъёсыд	-10.1599
▁чырты	-10.16
▁тододы	-10.16
дтӧд	-10.1602
▁вожпотонэн	-10.1603
▁ушъяськы	-10.1608
▁лэзь	-10.1611
▁ёрмыса	-10.1611
▁кошкозы	-10.1612
▁сосуд	-10.1612
ТӤ	-10.1623
▁кулозы	-10.1629
▁пуктӥ	-10.163
четлыкъёссэ	-10.1631
▁шулдыръяськыса	-10.1631
▁уджысь	-10.1632
▁берытскозы	-10.1634
▁йырси	-10.1635
▁сюрессы	-10.1644
▁улӥсьёсыз	-10.1648
▁султӥзы	-10.165
▁басьтэмын	-10.165
▁сетӧм	-10.165
▁7	-10.1652
Котькуд	-10.1654
▁уломы	-10.1654
▁каронэз	-10.1655
▁министр	-10.1661
▁жалялоз	-10.1687
▁матаз	-10.1692
▁пачыл	-10.1705
▁музъемаз	-10.1709
быре	-10.1719
▁чакла	-10.172
▁кус	-10.1722
▁куашкато	-10.1724
▁сюлэмоос	-10.173
▁пиоссы	-10.1732
▁потыку	-10.1733
▁Вавилонэ	-10.1737
ИО	-10.1747
▁укылтэмъёс	-10.1747
Нокин	-10.1749
тӧг	-10.1762
Тушмон	-10.1764
зылы	-10.1788
▁вакчи	-10.1793
),	-10.1804
▁тодытон	-10.1828
▁улэме	-10.1831
▁кароно	-10.1837
▁пет	-10.1842
▁ӧтиз	-10.1847
▁аран	-10.1866
▁челядь	-10.1869
▁юало	-10.1872
▁сьӧлтэт	-10.1874
рт	-10.188
▁кошке	-10.1884
ъёсынызы	-10.1904
▁пырем	-10.1934
зь	-10.195
▁нап	-10.1957
лі	-10.1958
жаля	-10.1962
▁Гожтэм	-10.1963
ю	-10.1984
отӥ	-10.1991
▁тодметъёс	-10.1998
▁шормуӵъёс	-10.2019
ӧд	-10.2025
МО	-10.2028
▁ульчаос	-10.204
тыр	-10.2055
▁выжылы	-10.2057
ымтэ	-10.2057
▁гуэ	-10.2067
Да	-10.2067
▁Тӥ	-10.2067
сюлмы	-10.2071
▁керетон	-10.2074
мо	-10.208
▁сӥзиськон	-10.2081
Коть	-10.2097
▁поттӥ	-10.2109
▁ож	-10.2112
▁люк	-10.2113
▁ну	-10.2116
▁фараон	-10.2132
сна	-10.2134
▁данзэ	-10.2136
▁кутскы	-10.2136
ри	-10.2162
▁кылме	-10.2167
ыку	-10.217
▁дыдык	-10.2172
едлэсь	-10.2174
Сюрес	-10.2178
▁тарка	-10.218
котькуд	-10.2181
ат	-10.2181
тыршон	-10.2185
сыӵе	-10.2189
бадӟым	-10.219
▁кылемъёс	-10.219
кескич	-10.2191
шундыӝужан	-10.2191
выль	-10.2192
курадӟон	-10.2193
▁куло	-10.2196
▁сайка	-10.2197
Сьӧ	-10.2202
▁адӟись	-10.2208
чакла	-10.2214
яд	-10.2215
курбон	-10.2215
▁мукетъёс	-10.2216
▁сульдэръёс	-10.2216
▁Израильлы	-10.222
ид	-10.2221
▁юон	-10.2221
▁сётӥсько	-10.2222
▁нумыр	-10.2225
кайгуос	-10.2227
▁ишак	-10.2227
▁ултӥям	-10.223
▁уджалысь	-10.2233
▁бӧрды	-10.2235
▁палкышно	-10.2236
▁пырыса	-10.2238
▁нимаськоз	-10.2241
▁возиз	-10.2246
▁тыршы	-10.2248
▁кузь	-10.2257
▁кошкоз	-10.2263
▁луиськод	-10.2264
▁зарниен	-10.2265
▁сётӥськод	-10.2265
▁мерттэм	-10.2273
▁уджтас	-10.2274
▁торъя	-10.2275
▁инӧд	-10.2275
Шугадӟон	-10.2275
▁COVID	-10.2275
▁киулад	-10.2275
▁вӧсна	-10.2276
Визьмо	-10.2276
▁класс	-10.2276
▁куать	-10.2276
ігӧн	-10.2277
▁шулдыр	-10.2278
▁кылыдъя	-10.2279
▁шудонэн	-10.2279
▁кадӧ	-10.2279
афлэн	-10.228
▁пачылмыса	-10.2281
▁султытӥз	-10.2281
▁шедьтэм	-10.2283
▁нылмурт	-10.2283
▁синмыз	-10.2284
▁кылыныз	-10.2284
▁шып	-10.2285
Кулон	-10.2285
▁пельпум	-10.2285
Кырӟан	-10.2286
▁бордад	-10.2286
▁утиськыны	-10.2287
▁могысь	-10.2287
▁асшӧр	-10.2287
▁вакытэ	-10.2287
▁сетны	-10.2289
КЕТ	-10.2289
▁пыроз	-10.2292
▁сюлмад	-10.2293
▁шуылӥзы	-10.2302
▁дур	-10.2302
▁ветлӥзы	-10.2305
▁Иона	-10.2305
▁нуналам	-10.2305
▁сиыса	-10.2307
▁нянен	-10.2307
▁дуннеысен	-10.2308
▁Озьы	-10.2309
▁кылзэлэ	-10.2311
▁пуктыны	-10.2313
жалянзэ	-10.2316
▁лэсьтӥськоды	-10.2317
▁нылпиосты	-10.232
▁сюрестӥ	-10.232
▁куштӥзы	-10.232
▁мозмытыны	-10.232
▁лымы	-10.2322
▁янгыштэм	-10.2323
▁инмын	-10.2327
Улэп	-10.2328
▁бусыысь	-10.2328
▁куштӥськем	-10.2329
▁кулонэз	-10.233
▁султозы	-10.233
ОД	-10.2335
▁шайгу	-10.2336
▁ужъёстэ	-10.2337
Визь	-10.2338
▁нимме	-10.2339
▁организацияяс	-10.2339
▁лунсянь	-10.235
▁азяды	-10.2354
▁луэмез	-10.2355
▁улӥд	-10.2357
▁пеляд	-10.2359
▁улэмед	-10.2363
▁юртты	-10.2366
▁чин	-10.2369
▁нуналад	-10.2371
▁пӧрмозы	-10.2376
▁инм	-10.239
▁арын	-10.2394
▁лоба	-10.2406
▁анае	-10.2411
▁шӧйёс	-10.2413
▁гурезьын	-10.2417
▁6	-10.2423
малась	-10.2423
▁люкан	-10.2444
▁возиськод	-10.2448
▁потӥзы	-10.245
▁мозмытэ	-10.2451
иг	-10.2452
▁виноградпуд	-10.2453
▁сётӥське	-10.2458
ФЕЙЛ	-10.2463
авны	-10.2474
▁вераське	-10.2481
▁сётысал	-10.2484
▁тылыс	-10.249
▁вожпотонэ	-10.2494
▁улоды	-10.2496
▁вуз	-10.2503
▁вӧчӧм	-10.2518
Сюлэм	-10.2521
▁ужаны	-10.2528
▁уробо	-10.2531
▁пукт	-10.2545
▁пегӟы	-10.2547
4	-10.2553
▁чемпионат	-10.2554
ОС	-10.2567
вылӥ	-10.2575
▁улэмзэ	-10.2579
тэс	-10.2579
▁куштэм	-10.2601
Гожтэмын	-10.2603
▁курадӟы	-10.2608
дл	-10.2615
Кужмо	-10.262
Сюлмы	-10.2621
тыл	-10.2629
▁шуид	-10.2629
▁шобыртэ	-10.2636
▁кулонлэн	-10.2647
Ву	-10.2681
▁курадӟонъёс	-10.2692
▁муртъёслы	-10.2694
Куанер	-10.2696
▁кенер	-10.2702
▁кутас	-10.2703
▁Н	-10.2713
▁берыктэм	-10.2714
▁улэпъёс	-10.2724
Закон	-10.2733
ит	-10.2734
асьсэ	-10.2735
ське	-10.2737
▁улыкуз	-10.2744
▁ултӥян	-10.2749
▁адямилэсь	-10.2751
▁басьтӥ	-10.2754
иськод	-10.2755
тшӧм	-10.2764
▁гур	-10.2779
▁я	-10.2782
▁пельтэм	-10.2796
▁Да	-10.2817
▁дышетэ	-10.2821
▁Ин	-10.2825
▁ӝутскы	-10.2828
▁сюръёс	-10.2837
мзэс	-10.2859
▁пазя	-10.2883
▁па	-10.2894
Дышетӥсь	-10.2899
▁нимӧ	-10.29
ёслэн	-10.2904
▁сюро	-10.2908
асьӧм	-10.2909
▁тэрытскись	-10.2909
▁калыкезлы	-10.2915
▁пыж	-10.2927
тём	-10.2935
сюрес	-10.2935
ус	-10.2937
▁шуись	-10.2944
уг	-10.2945
Суд	-10.2954
Иосиф	-10.2961
Иоанн	-10.2961
Едом	-10.2961
зарни	-10.2961
пыдэстэм	-10.2961
вапумъёс	-10.2962
ӵукна	-10.2962
▁скиния	-10.2965
шонерлыко	-10.2971
▁3	-10.2976
▁юкӧн	-10.2988
алан	-10.2988
▁кошкы	-10.2993
жаляса	-10.2995
▁мозмытэм	-10.2999
▁автомашина	-10.2999
▁ляльчиосыз	-10.2999
▁бырйиз	-10.3007
Йыр	-10.3007
▁йылаз	-10.3016
▁вуттоз	-10.3017
▁ӝутскиз	-10.3017
▁шедьтӥз	-10.3019
▁яраты	-10.3025
▁иудей	-10.3027
Шумпот	-10.3028
▁ӝутӥз	-10.303
▁уллёез	-10.3031
▁погыртоз	-10.3032
онер	-10.3036
▁султоз	-10.3038
▁услугаяс	-10.3038
▁акци	-10.304
▁ӝега	-10.3045
Туннэ	-10.3045
калгон	-10.3045
▁дӧзьӧр	-10.3045
▁сепыс	-10.3045
▁кускерттон	-10.3045
▁вермӧмъяс	-10.3045
▁дзик	-10.3045
Лек	-10.3045
▁кытысь	-10.3045
▁киулам	-10.3045
Асьтэ	-10.3045
▁кежлӧ	-10.3046
▁шори	-10.3047
▁мукӧд	-10.3047
▁укшасез	-10.3048
▁йыромыса	-10.3048
▁пӧртысь	-10.305
▁киоссы	-10.3051
▁виемын	-10.3051
РЫ	-10.3052
▁тырмемын	-10.3054
▁Корей	-10.3055
▁шаерысь	-10.3055
▁погыртӥз	-10.3056
▁кӧтсы	-10.3058
▁эриксэ	-10.3058
▁визьмыз	-10.306
▁данъян	-10.306
▁сьӧлтэтъёс	-10.3062
▁ушъялозы	-10.3062
▁мозмытӥд	-10.3064
▁погыртэмын	-10.3066
▁вӧсяськемме	-10.3066
▁вирзэс	-10.3067
▁азьтӥз	-10.3068
▁лыдъяны	-10.3075
▁мукетъёссэ	-10.3075
▁поттӥд	-10.3077
▁котыре	-10.3077
▁пиоссэ	-10.3077
▁веранэз	-10.3078
▁йыбыртъя	-10.3079
▁эрк	-10.308
▁осконэн	-10.308
▁йылазы	-10.3084
▁азьпалан	-10.3084
▁кылӥд	-10.3084
▁пӧяськон	-10.3085
▁писпуэз	-10.3086
▁оскиськонэз	-10.3086
▁уродлыкез	-10.3086
▁луиды	-10.3087
рака	-10.3088
▁данлыко	-10.3091
▁утчаны	-10.3096
▁йӧнтэм	-10.3097
▁кылӥды	-10.3097
▁котыртӥзы	-10.3098
▁яратыса	-10.3105
▁кылдытэмын	-10.3106
▁юр	-10.3107
▁йырзэс	-10.3109
▁кечъёс	-10.311
▁Македон	-10.3118
СЕ	-10.3118
▁бать	-10.3119
▁Ар	-10.3122
▁узырлыкез	-10.3123
▁нуозы	-10.3125
ъёслы	-10.3129
▁нимаз	-10.313
▁арзэ	-10.3131
▁музъемазы	-10.3133
▁пушказы	-10.3134
▁возьмасьёслэн	-10.3142
▁ӟечлыкез	-10.3144
▁гурезьёсын	-10.3152
тӥзы	-10.3154
▁кад	-10.3157
▁эксэйлэсь	-10.3162
▁косонъёстэ	-10.3163
▁кышкасьтэмез	-10.3163
▁кылӥзы	-10.3176
▁ун	-10.3182
жаляндэ	-10.3183
▁кедырпуос	-10.3187
▁усё	-10.319
▁су	-10.3193
тушмон	-10.3209
▁арбери	-10.3214
▁оскыса	-10.3215
ськоды	-10.3216
▁Варнава	-10.3217
▁шуод	-10.3217
▁кылдытӥ	-10.322
▁ёрос	-10.3223
▁муртъёсыд	-10.3224
▁пумитаз	-10.3224
▁юэ	-10.3225
оссы	-10.3232
Тушмонъёсы	-10.3239
онэз	-10.3244
▁нуллӥсь	-10.3273
▁адӟиськы	-10.3279
▁выжыысьтыз	-10.3281
ӥсьёс	-10.3281
▁улад	-10.3292
▁одӥгзэ	-10.3311
▁карган	-10.3311
▁аттьӧал	-10.3314
кык	-10.3317
ымныр	-10.3346
▁юртлы	-10.3349
▁оскиськонэ	-10.335
▁кышнозэ	-10.3388
Монэн	-10.339
▁пыртӧм	-10.3411
▁лампада	-10.3411
▁сӧры	-10.3432
дана	-10.344
Шонерлык	-10.3441
исьтэм	-10.3445
▁бызе	-10.3451
▁тыроз	-10.3475
▁лыдъяса	-10.3476
▁учки	-10.3491
▁мун	-10.3491
▁ӟечез	-10.3495
▁валасьтэм	-10.3506
▁д	-10.3515
існы	-10.3526
ылӥз	-10.354
▁пӧрмытэ	-10.3545
▁куашкатъя	-10.3555
ӥськод	-10.3556
лобӟыса	-10.3556
ысьтым	-10.3559
!–	-10.3566
сюлэм	-10.3576
▁даур	-10.3578
▁гажа	-10.3586
Ог	-10.3606
▁коньдон	-10.3606
▁вазиське	-10.3621
ъяссӧ	-10.3631
▁ӧш	-10.3632
▁вайёс	-10.3642
▁кывкут	-10.3651
▁тупа	-10.3655
▁емышъёссэ	-10.3667
▁мыны	-10.3668
▁гумы	-10.367
сько	-10.3676
▁Утись	-10.369
▁малпанъёс	-10.3701
▁куре	-10.3709
▁буш	-10.3712
ысеныз	-10.3716
▁ваньмы	-10.3716
Дас	-10.3724
тузон	-10.3727
▁верамез	-10.3731
отысь	-10.3738
▁карод	-10.3747
▁эгыръёс	-10.3747
кинъёс	-10.3774
▁сюресъёсы	-10.3779
кӧй	-10.378
▁дырлы	-10.3785
▁чидась	-10.3786
▁кузёйыръёс	-10.379
Езекия	-10.3794
юрӟым	-10.3794
вӧсяськон	-10.3794
шумпотон	-10.3795
пӧртэм	-10.3795
тӥледыз	-10.3795
табере	-10.3795
▁ыжпи	-10.3799
▁музъемзы	-10.3802
вир	-10.3809
▁вын	-10.3814
▁малпасьёс	-10.3816
▁басьтӥсьёс	-10.382
▁шулдыръяськы	-10.3825
▁кисьты	-10.3826
▁тодӥсь	-10.3831
▁палэнтӥд	-10.3835
▁луисько	-10.3836
тае	-10.3836
▁вордскиз	-10.3837
▁шобыртӥз	-10.3838
▁куен	-10.3838
▁куасьмоз	-10.3839
▁яратӥсько	-10.384
▁ортчиз	-10.384
▁вайисько	-10.3842
▁нуӧдӧм	-10.3842
▁ӝутске	-10.3843
▁валало	-10.3843
▁синву	-10.3846
▁атайёсмы	-10.3846
▁киысьтыз	-10.3847
▁усьтӥськиз	-10.3848
▁рад	-10.3848
визьлыко	-10.3851
▁жалясь	-10.3852
нуналлы	-10.3854
ям	-10.3857
▁шулдыръяськоз	-10.3858
▁кутоз	-10.3858
▁секытэ	-10.3858
▁найӧ	-10.3861
▁могмӧдӧм	-10.3862
▁куашкатоз	-10.3862
▁тӧроос	-10.3863
Виноград	-10.3863
СТ	-10.3865
▁пере	-10.3866
▁Улӥсь	-10.3866
▁уйпал	-10.3868
▁куинетӥ	-10.3869
▁ӧтьы	-10.3871
▁лыдъяло	-10.3872
▁кузёйыр	-10.3872
▁могъяс	-10.3876
▁кивалтон	-10.3877
▁институт	-10.3878
Вашкала	-10.3878
Сэсся	-10.3878
тӧлпери	-10.3878
▁категория	-10.3878
▁мыкырты	-10.3878
▁огкадь	-10.3878
▁позянлун	-10.3878
Язычникъёс	-10.3878
Ханаан	-10.3878
▁медыджыд	-10.3878
▁ванен	-10.3878
▁кузьда	-10.3879
▁дышетскисьёсыз	-10.388
Паймымон	-10.388
▁йӧтӥськиз	-10.3881
▁дурбасьты	-10.3881
Еги	-10.3882
озяз	-10.3882
▁санитарн	-10.3882
▁вискытӥ	-10.3882
▁изъян	-10.3882
▁ялэ	-10.3884
эсьмаса	-10.3884
▁вуытозь	-10.3884
▁тодытыны	-10.3884
▁адӟоз	-10.3885
▁куалектозы	-10.3885
▁лэсьтӥськод	-10.3885
▁17	-10.3885
▁наро	-10.3885
▁сутэмын	-10.3885
од	-10.3886
КЛ	-10.3889
▁Зоровавель	-10.3889
▁чабей	-10.3889
▁пумыз	-10.389
▁дырозь	-10.3891
▁нималозы	-10.3891
ЕЗ	-10.3892
▁тодоз	-10.3893
▁пыдъёсме	-10.3893
▁юнматоз	-10.3895
▁йыбырттозы	-10.3895
▁визьнодчиосты	-10.3895
▁вискын	-10.3896
▁валалэ	-10.3897
▁архиерейёс	-10.3899
▁сійӧс	-10.3899
▁будосъёс	-10.39
Шонерлыко	-10.39
▁юнматыны	-10.3901
▁погралозы	-10.3903
▁кутш	-10.3903
▁дэлетэз	-10.3903
▁утчалэ	-10.3905
▁быдӟымлыкез	-10.3906
▁малпай	-10.3908
▁Тани	-10.391
▁вись	-10.3913
▁кылдытӥд	-10.3913
▁пуктӥд	-10.3914
▁бӧрысь	-10.3914
▁пукыку	-10.3915
▁улӥмы	-10.3916
▁про	-10.3918
▁вӧзын	-10.3922
▁мумы	-10.3922
▁ымысьтым	-10.3923
▁бызьыны	-10.3924
▁чашаез	-10.3925
▁ӵыжы	-10.3925
▁оскиськыны	-10.3927
▁ляльчизэ	-10.3929
▁возизы	-10.3929
▁зэмлыко	-10.3933
▁пушкысьтыз	-10.3934
▁крезь	-10.3934
?”»	-10.3935
▁усизы	-10.394
нэз	-10.3948
▁сиёнэз	-10.3954
▁сюлэмзэ	-10.3954
▁атаезлэсь	-10.3956
▁пайдаез	-10.3956
▁улӥды	-10.3958
▁адӟонэз	-10.396
▁куалекъяса	-10.3965
▁киынызы	-10.397
рын	-10.3978
Пыд	-10.3978
▁выжыосыз	-10.3979
▁ортчы	-10.398
▁викышъям	-10.3985
▁куанеръёс	-10.3989
дас	-10.3995
▁фили	-10.3996
си	-10.3998
▁валес	-10.4001
▁нӧ	-10.4001
анайтэ	-10.4003
▁куар	-10.4007
▁интыям	-10.402
▁вутты	-10.402
▁выжызы	-10.4023
▁висись	-10.4025
▁семья	-10.4028
ъёсы	-10.404
быро	-10.4048
ӧдӧм	-10.4049
Ки	-10.4051
▁шуылӥ	-10.4069
▁пелля	-10.4075
▁палаш	-10.4077
▁кузёез	-10.4084
тозяз	-10.4086
▁ышо	-10.4095
▁уджал	-10.4098
▁ч	-10.4099
▁кылемын	-10.4099
иялэн	-10.4102
▁улонлы	-10.4102
Корка	-10.4103
▁храмез	-10.4114
▁мувыръёс	-10.4119
вӧй	-10.4127
ослэн	-10.4139
▁кулонлэсь	-10.4148
▁тодӥ	-10.4167
Яратонэ	-10.417
▁мы	-10.4182
▁азвесен	-10.4188
▁ярато	-10.4192
▁араз	-10.4197
▁законзэ	-10.4208
▁кедырпу	-10.424
▁сет	-10.424
ӧмын	-10.4244
▁ӝужа	-10.4248
▁кивалт	-10.4249
▁тод	-10.4252
▁сьӧлыкоос	-10.4252
▁карын	-10.4263
уз	-10.4275
▁ултӥя	-10.4279
емез	-10.4281
мыд	-10.4283
▁юртъёссэ	-10.4283
Кар	-10.4303
▁шугадӟонъёс	-10.4304
▁берлан	-10.4365
вал	-10.4369
косонъёсы	-10.4381
иса	-10.4391
▁вуон	-10.4398
▁быгатӥсь	-10.441
шур	-10.442
пудо	-10.4431
ӥсько	-10.4438
▁каланча	-10.4447
сано	-10.4467
▁эксэйлыкъёс	-10.447
▁Мар	-10.4486
▁выжыосы	-10.4505
▁чигна	-10.4507
▁сюлмаськон	-10.4519
▁ожмаськись	-10.4527
▁Ана	-10.4552
ческӧй	-10.4552
▁мынӥсьёс	-10.4553
ымы	-10.4554
ц	-10.4554
▁кизе	-10.4556
▁миле	-10.457
ослэсь	-10.4582
кум	-10.4594
каяс	-10.4595
▁миянлы	-10.4601
▁Ев	-10.4605
лӧм	-10.461
над	-10.4611
▁сына	-10.4611
▁будэтэ	-10.4612
▁кылъёстэ	-10.4618
▁адӟонъёс	-10.4624
7-	-10.4627
лю	-10.4644
▁музъемзэ	-10.4647
нунал	-10.4649
кивалтӥсьёс	-10.465
▁вераськем	-10.4662
лев	-10.4662
▁чорыг	-10.4674
утиськон	-10.4678
▁куа	-10.4679
луо	-10.4679
зылэсь	-10.4686
город	-10.4689
▁улонзэ	-10.4689
▁дышетӥсь	-10.469
▁потэмъёс	-10.4691
сӥ	-10.4694
Яке	-10.4696
▁бурмы	-10.4702
пичи	-10.4702
▁ортчыто	-10.4702
Самария	-10.4702
зӥбыт	-10.4703
шунды	-10.4704
азьвыл	-10.4704
нуны	-10.4704
Израилез	-10.4705
тырттэм	-10.4706
сютэм	-10.4708
ӧрекчаськон	-10.471
▁кутски	-10.472
нуназе	-10.4722
▁оскисько	-10.4723
▁кылдэм	-10.4729
▁паныд	-10.473
▁улэмме	-10.4732
техническӧ	-10.4732
▁сӧвмӧдӧм	-10.4737
▁куашкатэм	-10.474
Бур	-10.4745
▁вииз	-10.4748
▁ушъяло	-10.475
▁берытскиз	-10.4754
▁куриз	-10.4757
▁мертто	-10.4757
▁вӧсяськем	-10.4758
▁вуттэ	-10.4759
▁ыше	-10.476
▁куштӥське	-10.4761
▁граждана	-10.4762
▁сійӧ	-10.4764
▁быдэстоз	-10.4765
▁храме	-10.4765
▁сэрпалто	-10.477
▁саптаськем	-10.4772
▁вермы	-10.4773
▁век	-10.4775
▁Э	-10.4778
▁фимиам	-10.4779
▁куараос	-10.4779
▁кырӟа	-10.4779
▁кивалтӥсьёссэ	-10.4782
лӥсьтэм	-10.4782
анитарн	-10.4783
▁кӧрт	-10.4785
▁нуналъёсаз	-10.4785
▁дӥськутсэ	-10.4786
▁инӧдъяс	-10.4786
ваньзэс	-10.4787
Пудо	-10.4787
>***	-10.4787
▁конкурс	-10.4787
▁диавол	-10.4787
▁оглюкет	-10.4787
▁мутас	-10.4787
Тӧл	-10.4788
▁чечы	-10.4788
Мый	-10.4789
▁зар	-10.4789
▁эськ	-10.479
▁заслугаясысь	-10.479
Сідз	-10.479
Тӥни	-10.4791
▁бара	-10.4791
▁азьысьтыд	-10.4791
▁ньылыны	-10.4791
▁Елифаз	-10.4792
▁котьмар	-10.4792
▁уджалан	-10.4792
▁чидалоз	-10.4793
▁ӵошкыт	-10.4793
лья	-10.4794
ськон	-10.4794
▁збыльмӧдны	-10.4794
▁азьлань	-10.4795
▁колана	-10.4795
▁юнэсь	-10.4795
▁люкалоз	-10.4796
▁кесясько	-10.4797
▁пуктӧмысь	-10.4797
▁бордысьтыд	-10.4797
▁вузчиос	-10.4798
▁кельтоз	-10.4798
▁тямыс	-10.48
▁плены	-10.48
исько	-10.48
▁йӧл	-10.48
▁буёл	-10.4801
▁маз	-10.4802
асьсэлэн	-10.4802
▁интыяськозы	-10.4802
Талун	-10.4803
▁уджсӧ	-10.4805
▁кылӥмы	-10.4805
▁выт	-10.4806
▁Священн	-10.4806
дны	-10.4807
▁сиӧм	-10.4808
▁мозмытскон	-10.4808
▁липет	-10.4808
▁малпаз	-10.4809
▁огкылысь	-10.481
ИМ	-10.4814
Челядьлы	-10.4816
▁Аминь	-10.4816
▁тодытэк	-10.4817
▁ымнырыз	-10.4819
▁дышетыны	-10.4822
▁Манассия	-10.4824
▁жаг	-10.4824
▁Вениамин	-10.4824
▁сэзь	-10.4824
▁лӧсьӧдӧм	-10.4825
▁шуиськод	-10.4825
▁10	-10.4826
▁макеосты	-10.4826
▁Иворез	-10.4827
▁престолэз	-10.4828
▁Инмын	-10.4828
▁интыосыз	-10.483
▁кӧтыз	-10.483
лава	-10.4835
▁лулэз	-10.4836
▁выныз	-10.4837
▁ватӥськем	-10.484
▁огшоры	-10.4841
▁Эфиопия	-10.4841
▁тодыса	-10.4842
либӧ	-10.4845
▁курадӟонэз	-10.4845
▁вормон	-10.4848
▁законъя	-10.485
▁ымыз	-10.4851
▁виылы	-10.4853
▁луонэ	-10.4853
▁сьӧлыкъёссэс	-10.4854
▁регионын	-10.4857
▁объектъяс	-10.4857
▁шоразы	-10.4862
▁храмын	-10.4862
▁борддорез	-10.4864
▁вылтӥяськыса	-10.4869
Меч	-10.4871
▁Христосэз	-10.4872
▁Ассэ	-10.4873
▁пыртэ	-10.4874
▁малпаса	-10.4881
▁пумаз	-10.4882
▁шулдыръяськозы	-10.4888
1	-10.4891
▁виыны	-10.4893
▁визьлыкен	-10.4898
▁ляльчиоссэ	-10.4901
Асьмелэн	-10.4901
▁куасьмем	-10.4905
▁коркаез	-10.4905
▁куштыса	-10.4907
вӧл	-10.4911
▁малпам	-10.4912
Тодад	-10.4912
оссэ	-10.4915
▁мечез	-10.4928
▁кутскем	-10.493
▁юрнуӧдысьлы	-10.4934
ваньды	-10.4935
▁ӝутӥ	-10.4935
▁шобырты	-10.4938
куд	-10.4938
▁Иаковез	-10.4938
▁каронзэ	-10.4939
▁од	-10.4943
▁городысь	-10.4943
бер	-10.4948
▁чидаса	-10.4949
▁юнлык	-10.4956
▁кураськисьёс	-10.4981
▁вераськон	-10.4981
▁велӧдчысь	-10.4986
▁пурт	-10.499
еф	-10.4993
ди	-10.5001
▁пудозэ	-10.5003
▁Иисусэз	-10.5012
нуӧдысь	-10.5013
▁кутӥз	-10.5018
▁гожты	-10.5019
▁шор	-10.5029
исны	-10.503
▁быгатозы	-10.5032
▁ымнырме	-10.5033
▁быдэсмы	-10.504
▁дыръязы	-10.5041
▁луонлык	-10.5052
▁Кыты	-10.5056
лулы	-10.5063
Уж	-10.5077
▁судэз	-10.5083
▁20	-10.5085
уна	-10.5086
▁куалекъян	-10.5104
▁пыкылы	-10.5107
▁ымдэ	-10.5107
▁пе	-10.512
▁босьт	-10.5138
▁уробоос	-10.5144
▁азьпалаз	-10.5152
▁юртъёс	-10.5153
сьёсты	-10.5158
▁медо	-10.5167
▁Павел	-10.5184
▁пуксьы	-10.5191
ыл	-10.5193
▁веранзэ	-10.5196
▁дасяло	-10.5198
▁примит	-10.5199
▁яратӥ	-10.5202
га	-10.5206
нь	-10.5216
▁виято	-10.5217
▁возем	-10.522
▁кутэ	-10.5236
▁тыры	-10.5246
▁тушмонъяськ	-10.5246
▁вуза	-10.525
?!	-10.5253
▁вог	-10.5264
▁кыдёк	-10.5274
▁йыбыртъян	-10.5278
▁суббота	-10.5302
▁куштэ	-10.5308
валанэз	-10.5313
▁вӧт	-10.5314
.*	-10.5319
▁уллёзэ	-10.5321
ськись	-10.5342
▁ныпъет	-10.5344
Удж	-10.5349
▁шуа	-10.5355
▁шулдыръясько	-10.5359
▁вайи	-10.5377
▁пӧл	-10.5384
▁духсэ	-10.5387
▁улыкум	-10.5395
тӧм	-10.5401
код	-10.5409
Кужым	-10.541
ӧпкельыса	-10.5418
▁нуныос	-10.5422
ес	-10.5429
ник	-10.543
▁сюре	-10.5443
соосын	-10.5447
анай	-10.5462
▁дӥсь	-10.5477
▁вамыш	-10.5483
корка	-10.5486
▁эше	-10.549
▁модос	-10.5497
йыр	-10.551
▁люкетэ	-10.5545
▁быдэсты	-10.5549
дар	-10.5553
▁праздник	-10.5556
▁пужей	-10.5562
3-	-10.5567
▁ватэ	-10.557
Кык	-10.5587
▁брат	-10.5591
син	-10.5593
▁кӧй	-10.5616
▁Шонер	-10.562
шек	-10.5623
ск	-10.5628
▁шудон	-10.5633
уй	-10.5639
им	-10.5644
▁ӝутэм	-10.5648
▁тулкымъёс	-10.5656
едлы	-10.5658
▁ват	-10.567
▁мозмыто	-10.5672
5-	-10.5675
ымыныз	-10.5678
▁возьдаськон	-10.568
▁изкар	-10.5681
▁городаз	-10.5681
▁вамышъя	-10.5688
▁султӥсько	-10.5688
▁юралысь	-10.569
▁Бе	-10.5692
езлэсь	-10.57
Кулэм	-10.57
Исав	-10.5703
быдӟым	-10.5703
Моисей	-10.5703
пленэ	-10.5704
▁ульча	-10.5705
ӧрекчаськыса	-10.5705
Тир	-10.5707
Инмысь	-10.5708
синазькыль	-10.5708
тодон	-10.5709
▁кора	-10.571
ласянь	-10.5711
эныз	-10.5716
▁шобырто	-10.5717
аслэсьтым	-10.5718
кем	-10.5724
▁усьто	-10.5728
▁юнмато	-10.5732
выжы	-10.5745
калыкъёсты	-10.5746
▁быдӟымлык	-10.5749
Визьнодо	-10.5753
Яра	-10.5755
▁ляльчиез	-10.5758
▁аре	-10.5758
▁14	-10.5758
▁учкиз	-10.577
▁тодыто	-10.5772
▁быгатӥськод	-10.5775
Иерусалимысь	-10.5776
▁олӧм	-10.5777
▁ӧте	-10.5782
▁сынаськон	-10.5782
▁чуж	-10.5785
▁кыдз	-10.5786
Фарсис	-10.5787
Больш	-10.5787
▁Авденаго	-10.5787
▁Оланпасл	-10.5787
▁колледж	-10.5787
▁кындзи	-10.5787
Азьвыл	-10.5787
▁Мисах	-10.5787
▁кокньӧд	-10.5787
▁вежсьӧмъяс	-10.5787
▁промышленносьт	-10.5787
▁кылле	-10.5787
▁гурезям	-10.5787
▁авто	-10.5787
▁окты	-10.5787
▁сӥзьыса	-10.5788
Храм	-10.5788
▁быгатӥськы	-10.5788
▁вӧзысь	-10.5788
▁лызь	-10.5788
▁кыстӥське	-10.5788
Отысен	-10.5789
Кылзэлэ	-10.579
дчыны	-10.5791
▁гурезяз	-10.5791
▁усьтэмын	-10.5792
▁наука	-10.5792
▁нюртыса	-10.5792
▁люкаськизы	-10.5793
▁йыбырттыны	-10.5793
▁улӟытыса	-10.5794
ашк	-10.5795
>12	-10.5796
▁мертаськон	-10.5796
▁ортчытыны	-10.5797
▁кутсконэз	-10.5797
Гажан	-10.5798
▁вӧсяськыны	-10.5799
▁лэзисько	-10.58
▁каргамын	-10.5801
▁ӵыжатыса	-10.5801
▁синмаськымон	-10.5801
▁Глотов	-10.5801
▁берекет	-10.5801
▁куштӥд	-10.5801
▁шайтан	-10.5801
▁возьман	-10.5801
▁утемын	-10.5802
▁тӧроосыз	-10.5802
▁пырисьёс	-10.5802
▁куасьмыса	-10.5802
рес	-10.5803
▁дуннеетӥ	-10.5803
▁понытэк	-10.5803
▁вӧзтӥ	-10.5803
▁храмаз	-10.5804
▁куштӥськизы	-10.5805
▁ӝужытэсь	-10.5805
▁Оланподувл	-10.5806
▁курадӟонэ	-10.5806
▁сётылы	-10.5807
▁сямен	-10.5807
▁вужераз	-10.5808
▁сиизы	-10.581
Улӥсько	-10.581
▁пень	-10.581
▁бырисьтэм	-10.5811
▁системаын	-10.5811
▁люкетсы	-10.5811
▁нюлэскы	-10.5813
▁эшъёсыд	-10.5814
ыныд	-10.5815
▁ӧвӧлтэмзэ	-10.5815
▁кадез	-10.5815
▁юозы	-10.5818
▁инмаръёссы	-10.5818
▁ӝутӥд	-10.5818
▁улам	-10.5819
▁куалекъялозы	-10.5822
▁йӧлын	-10.5822
Халдей	-10.5822
▁вожпотонме	-10.5825
▁быдэсто	-10.5825
Тӥледыз	-10.5825
▁луид	-10.5825
▁ортчыса	-10.5826
▁йыркурзэ	-10.5826
▁лыдын	-10.5828
▁ултӥямын	-10.5829
▁эксэйлыкъёсты	-10.5829
▁луэмзэ	-10.5829
▁суйбыгытсэ	-10.583
▁ужало	-10.5831
▁ултӥяса	-10.5832
▁данъясько	-10.5832
▁тодэм	-10.5833
▁куштозы	-10.5833
▁начальниклы	-10.5833
▁юыны	-10.5833
▁вылысен	-10.5833
▁сульдэръёссы	-10.5835
▁пыдъёсыз	-10.5835
▁сётытэк	-10.5836
▁нырысетӥез	-10.5837
▁черк	-10.5837
▁нылъёсыз	-10.5838
▁Нуны	-10.5838
▁тодод	-10.5839
▁няне	-10.5841
▁шонерлыктэ	-10.5841
▁кышномуртэз	-10.5842
▁гурезьёсты	-10.5844
▁пиоссэс	-10.5845
▁берыктыны	-10.5846
▁йырыз	-10.5849
Бер	-10.585
▁ӵушкась	-10.5851
▁луиськоды	-10.5852
▁мукетъёсыз	-10.5858
▁куашка	-10.586
▁вылысьтыд	-10.586
▁нылэз	-10.5861
▁сюлэмыз	-10.5863
▁нумыръёс	-10.5864
▁кельтӥзы	-10.5865
▁Галаад	-10.5865
кыд	-10.5866
▁шугадӟонэз	-10.5871
▁выжыосты	-10.5871
▁будэты	-10.5872
▁султыны	-10.5873
▁эшез	-10.5876
ысал	-10.5877
▁сюлэмдэс	-10.5878
▁уродэн	-10.5878
▁кутско	-10.5883
▁сылысь	-10.5893
▁улӥськоды	-10.5894
▁локт	-10.5897
▁сиись	-10.59
▁интыяло	-10.5901
▁вылтӥз	-10.5908
▁йылысен	-10.5919
▁атаезлэн	-10.5933
▁ветлон	-10.5936
▁сётоно	-10.5939
▁кузпал	-10.5939
▁синъёсме	-10.5939
нодъям	-10.594
▁пӧлаз	-10.5956
ро	-10.596
▁котырысь	-10.5964
▁борддоръёс	-10.5969
▁пуктӥзы	-10.5972
▁азвесьлэсь	-10.5974
иров	-10.598
АН	-10.5989
Тодӥсько	-10.599
▁Вавилонысь	-10.5993
ваньзэ	-10.5997
▁Сӥонын	-10.6
Вож	-10.6001
▁поттӥзы	-10.6003
▁куты	-10.6003
▁ымме	-10.6009
вын	-10.601
ызлэн	-10.6011
▁сьӧлтэтэ	-10.6012
▁музъемзэс	-10.6027
▁пӧсе	-10.6032
▁мынэм	-10.6043
▁возьыттэм	-10.6052
▁ви	-10.6054
сьтыз	-10.6056
▁тодмотэм	-10.6071
меч	-10.6072
▁востэм	-10.6073
Священникъёс	-10.6075
▁валъёсыз	-10.608
фра	-10.608
▁пыртӥз	-10.6099
▁сётэмез	-10.6101
▁вождэ	-10.6103
▁сӥзиськонъёс	-10.6106
▁гуртъёс	-10.6108
тӥсько	-10.611
▁войтыр	-10.6122
▁куры	-10.6123
▁оскисьёс	-10.6127
ськиз	-10.6131
▁быдтӥсь	-10.6135
ля	-10.6143
Том	-10.6144
▁быдтонтэм	-10.6154
иськоды	-10.616
▁шудонъёс	-10.6167
▁мечлэсь	-10.6169
▁будӥз	-10.6173
тор	-10.6174
▁музъемъёс	-10.6178
▁ветлэм	-10.6181
▁вырйылъёс	-10.6185
▁тодытэм	-10.6188
▁юртсэ	-10.6206
▁пиналъёс	-10.621
▁пудоос	-10.6219
▁жуг	-10.6239
ышт	-10.6244
▁тубо	-10.6259
огъёсыз	-10.6262
▁мынон	-10.6264
▁пырис	-10.6272
▁министерство	-10.6278
йӧ	-10.6282
▁муртъёслэсь	-10.6302
▁пытсэтэ	-10.6307
▁каремез	-10.6324
ъем	-10.6327
ия	-10.6328
▁ужен	-10.6336
▁йыры	-10.6345
▁ту	-10.6349
▁Павелэ	-10.6355
тысен	-10.6356
ыдлэн	-10.6371
▁уджалысьяс	-10.6371
▁понназ	-10.6376
ук	-10.6383
▁Ы	-10.6388
▁сюе	-10.6389
▁секта	-10.6395
▁Иерусалимлы	-10.6396
▁лушка	-10.6406
▁мыйк	-10.6409
▁пук	-10.641
▁Индӧд	-10.6415
”?	-10.6421
▁муртэн	-10.6424
▁ватса	-10.6426
▁ара	-10.644
кылы	-10.6442
ӥзы	-10.6444
▁зӥбет	-10.6446
▁ӧтув	-10.6453
▁улӥсьлэсь	-10.6457
▁ымъёс	-10.6459
▁вылтӥяськон	-10.6465
ол	-10.6467
ая	-10.6476
▁басьтӥсь	-10.6493
▁дышето	-10.6506
▁ужъёсыныз	-10.6516
▁коркасьты	-10.6517
▁кышкасьтэмъёслы	-10.6537
по	-10.6546
▁инд	-10.6554
Калыке	-10.6555
таркан	-10.656
мды	-10.6563
▁коркам	-10.6571
▁Адями	-10.6574
▁улонзы	-10.6578
▁ӝож	-10.6579
▁ляб	-10.6584
ъёсыныд	-10.6591
ён	-10.6603
▁луыку	-10.6603
▁сӧзы	-10.6605
иськыса	-10.6606
пыр	-10.6609
▁курда	-10.6611
ёссэ	-10.6616
▁косӥ	-10.6629
▁сиы	-10.664
6	-10.6648
▁гуре	-10.6662
▁сюрем	-10.667
▁Ш	-10.6675
▁возьмаськы	-10.6685
▁бам	-10.6686
!..	-10.6704
▁кизили	-10.671
▁вузэ	-10.6718
Христос	-10.6721
▁буйгатскон	-10.6723
>11	-10.673
▁шузи	-10.6732
инъёс	-10.6735
зэмлык	-10.6739
▁выжылэн	-10.6741
рд	-10.6751
пал	-10.6752
шонерлык	-10.6753
▁мылкыдо	-10.6755
▁престолзэ	-10.6756
узыр	-10.6763
▁тодытэ	-10.6766
зор	-10.677
пеймыт	-10.6772
▁гиж	-10.6775
кулон	-10.6775
▁куасьме	-10.6781
▁йӧ	-10.6786
Данъя	-10.679
Ӥ	-10.6791
▁левпи	-10.6798
▁нёжалэ	-10.6798
Ойдолэ	-10.6804
Александр	-10.6805
инг	-10.6805
»?	-10.6809
Еле	-10.681
азьпал	-10.681
Дамаск	-10.681
▁омыр	-10.681
Инмысен	-10.6811
Галаад	-10.6811
ёрмыса	-10.6813
Ассур	-10.6813
ӝужыт	-10.6813
Наташа	-10.6813
Воркута	-10.6814
дыр	-10.6814
милемлы	-10.6815
бышкись	-10.6815
секыт	-10.6816
пырак	-10.6817
тазьы	-10.6817
юнме	-10.6818
кудъёсыз	-10.6818
салам	-10.6818
▁5	-10.6819
кыдёкысь	-10.682
уте	-10.6824
сокем	-10.6825
ция	-10.6827
кузё	-10.6827
милемыз	-10.6834
1-	-10.6835
Пеймыт	-10.6837
▁ныр	-10.6838
▁гадь	-10.6843
▁Кам	-10.6846
шонертэм	-10.6852
▁мозмытӥ	-10.6856
▁ньылӥз	-10.6856
▁вунэто	-10.6858
▁талало	-10.6859
▁ӵушка	-10.6859
▁палэнтӥз	-10.6862
▁места	-10.6862
▁ӧрекчаськись	-10.6862
узырлык	-10.6863
▁ортчо	-10.6863
кайгуэ	-10.6864
▁пуктылӥз	-10.6864
▁кутсконысеныз	-10.6866
▁ветлӥз	-10.6866
▁вылтӥяськы	-10.6867
▁олысь	-10.6868
▁ньӧлъёс	-10.6869
▁атайёс	-10.687
▁бусыос	-10.687
▁Ма	-10.6873
▁утиз	-10.6875
▁Ио	-10.6875
▁кылӥськоз	-10.6877
▁Ваал	-10.6877
▁погыръя	-10.6879
▁уськыты	-10.6879
▁система	-10.688
▁возьдаськы	-10.688
▁ӝутӥськы	-10.6881
итель	-10.6882
▁шайт	-10.6882
▁возьмалоз	-10.6883
Пушк	-10.6884
▁гурезе	-10.6885
▁укшало	-10.6891
>14	-10.6893
▁шаплыесь	-10.6894
▁интыоссэ	-10.6895
▁керка	-10.6897
▁ӝужда	-10.6897
▁пушкысен	-10.6897
▁лесо	-10.6897
Дыр	-10.6897
▁Васан	-10.6897
▁сэтш	-10.6898
иверси	-10.6898
РУС	-10.6898
▁Гуцан	-10.6898
▁пыкъет	-10.6898
Петербург	-10.6898
▁ачым	-10.6898
▁букро	-10.6898
▁дурбасьтэ	-10.6898
▁литератур	-10.6898
▁олимпи	-10.6898
▁прокуратура	-10.6898
▁турттэ	-10.6898
Апостолъёс	-10.6898
▁мудэт	-10.6898
Куректыса	-10.6898
Чылкыт	-10.6898
▁вандӥськон	-10.6898
Пинал	-10.6898
Пунэм	-10.6898
▁пушкад	-10.6898
▁сёян	-10.6898
▁студентка	-10.6898
▁18	-10.6898
▁СССР	-10.6898
▁наградаяс	-10.6898
▁медтӧдчана	-10.6898
Азьпал	-10.6898
▁профессионалъяс	-10.6898
▁ӝуатскем	-10.6898
Отчы	-10.6899
Ӵукна	-10.6899
▁шом	-10.6899
▁кураськисез	-10.6899
▁кыед	-10.69
▁тодӥське	-10.69
▁ӧтувъя	-10.6901
▁чужан	-10.6902
▁мезд	-10.6902
▁уджалысьясӧс	-10.6902
▁нюртон	-10.6902
▁мугтэк	-10.6902
▁палэнэ	-10.6902
▁мог	-10.6902
▁пас	-10.6903
кайгырыса	-10.6903
▁кутсаськ	-10.6903
▁гор	-10.6903
Юнме	-10.6903
▁позь	-10.6903
▁печать	-10.6904
▁Седрах	-10.6904
▁паймыса	-10.6904
▁60	-10.6905
▁туш	-10.6906
▁вонас	-10.6906
▁ивортэмын	-10.6907
▁сайын	-10.6907
▁ярантэмесь	-10.6907
▁Емаф	-10.6908
▁воштэ	-10.6908
▁узырлыксэ	-10.6909
▁улытозь	-10.6909
▁сантэмамын	-10.6909
Вир	-10.691
▁вераськисьёс	-10.691
▁куаш	-10.691
▁луиськомы	-10.691
▁пыдло	-10.6913
▁вераськизы	-10.6914
▁Захария	-10.6914
▁Андрей	-10.6914
▁кыркеч	-10.6914
▁палэнтоз	-10.6914
▁юрттӥськыны	-10.6915
▁малпанзэ	-10.6915
Вал	-10.6915
нкт	-10.6916
▁судъёсыд	-10.6916
вож	-10.6917
▁азвесез	-10.6918
▁будӥ	-10.6919
▁вӧсяськись	-10.692
▁за	-10.692
▁курыт	-10.6921
▁сульдэръёсыз	-10.6921
▁малпанъёсыз	-10.6922
▁Нуныез	-10.6923
▁шыӧдчис	-10.6923
▁лэсьтылӥзы	-10.6924
84	-10.6925
▁Фамарь	-10.6925
▁гожтэм	-10.6925
▁малпанъёссэс	-10.6925
куректонэз	-10.6926
ъёссылэсь	-10.6927
▁зэмлыктэ	-10.6927
▁вунэтӥзы	-10.6927
▁кариськыны	-10.6929
▁таласа	-10.6929
▁тодӥськомы	-10.6929
▁йылэтэ	-10.693
▁пазьгиськы	-10.693
▁оланін	-10.6931
▁берыктонэз	-10.6931
▁эскерыны	-10.6931
▁быдэстӥз	-10.6931
▁киосыз	-10.6932
▁дугдӥзы	-10.6932
▁эксэйёссэ	-10.6933
▁кырыж	-10.6933
▁палэнскизы	-10.6933
ев	-10.6933
▁данлыксэ	-10.6934
▁гоно	-10.6934
▁кулыны	-10.6934
▁ворсаз	-10.6935
▁садэз	-10.6936
▁чигиськыса	-10.6938
▁юаз	-10.6939
Кылзы	-10.6941
▁шакалъёс	-10.6941
▁Николаев	-10.6942
▁ишакъёс	-10.6942
▁ӧрекчаськонэз	-10.6942
▁мыноме	-10.6943
▁план	-10.6944
▁моз	-10.6944
▁куалектӥзы	-10.6945
▁Филипп	-10.6945
▁луэмме	-10.6946
▁ваньбурзэ	-10.6947
▁шулдыръяське	-10.695
Луо	-10.695
▁ӵук	-10.6953
▁шӧды	-10.6953
▁нуналъёссэ	-10.6954
▁пегӟыса	-10.6954
▁сылӥзы	-10.6954
▁вожпотонзэ	-10.6954
▁Мелхиседек	-10.6955
▁ымысьтыд	-10.6957
▁дырыд	-10.6957
дор	-10.6957
али	-10.6958
▁данлыкен	-10.6961
▁сюлэмы	-10.6962
▁юрттӥськы	-10.697
▁кодь	-10.6977
▁ужазы	-10.6979
▁вуосыз	-10.698
▁пророкъёсты	-10.698
▁адямиосыз	-10.6981
▁пӧлысьтыз	-10.6981
▁нуллыса	-10.6982
▁уждэ	-10.6982
▁юнматэмын	-10.6982
▁берытскыса	-10.6985
▁лыктыны	-10.6986
Ӧрекчаськ	-10.6986
▁дасямын	-10.6986
▁юыса	-10.6988
иллям	-10.6988
Куара	-10.6988
ымаз	-10.6988
▁айы	-10.6991
▁кутшӧмъясӧ	-10.6992
▁пумысеныз	-10.6992
▁юалляськ	-10.6995
▁изъёсын	-10.6996
Возьытэ	-10.6998
▁быризы	-10.7001
▁гомаса	-10.7003
▁вожъяськы	-10.7004
▁юртысь	-10.7006
▁дырысеным	-10.7006
▁ымзы	-10.7011
▁Кужмо	-10.7012
▁гум	-10.7014
Кулэмъёс	-10.7019
▁луомы	-10.7022
▁синъёсыд	-10.7025
▁изэз	-10.7026
▁Инмысен	-10.7027
▁вирзы	-10.7028
▁чаклало	-10.703
▁интыяд	-10.7031
▁интызэс	-10.7033
ськы	-10.7033
▁шуоды	-10.7036
▁кышноезлэсь	-10.7038
▁сюез	-10.7038
ЛЫ	-10.7039
▁ужзэс	-10.7045
мена	-10.7045
▁збыльмӧдӧм	-10.705
▁сюлмын	-10.705
▁тодӥськоды	-10.7052
Ваньды	-10.7053
▁республикаын	-10.7055
▁куанерез	-10.7055
▁ортчись	-10.7061
Тросэз	-10.7062
▁босьтіс	-10.7064
тика	-10.7066
▁сюлмыд	-10.7074
▁тэтча	-10.7076
▁курбонэз	-10.7086
▁корказэ	-10.7087
▁асьсэды	-10.7095
>10	-10.7095
▁содт	-10.7105
▁предприятиеяс	-10.7108
исьёс	-10.7114
▁бурмыто	-10.7115
ъясӧн	-10.7115
▁пырт	-10.7117
лка	-10.712
▁будэтэм	-10.7134
сис	-10.7135
▁йӧзор	-10.7139
▁кужымтэм	-10.7147
▁басьтӥзы	-10.7153
НР	-10.7154
▁нуналъёсыд	-10.7154
▁лоӧ	-10.7156
▁по	-10.7163
сьӧлыко	-10.7184
▁сылӥсьёс	-10.7189
▁кышкасьёс	-10.7198
осын	-10.7202
Кылчинъёс	-10.7202
▁юртэзлы	-10.7205
▁кӧттэ	-10.7206
▁емышъёсыз	-10.7207
пуртэн	-10.7216
▁ляльчиосы	-10.7219
езъя	-10.722
Анай	-10.723
▁сюресъёсме	-10.7232
▁вайёссэ	-10.7234
▁о	-10.7236
▁калтон	-10.724
▁куак	-10.7244
▁котырса	-10.7246
инь	-10.7257
лон	-10.7259
▁9	-10.7266
▁дышетоз	-10.7267
лля	-10.7268
▁киулт	-10.7282
▁пыжъёс	-10.7283
▁Иаковлэсь	-10.7284
▁верад	-10.7293
▁кельтӥ	-10.7294
▁Д	-10.7299
▁котырӧ	-10.73
▁люкаськем	-10.7305
тылӥз	-10.7307
▁муртсэ	-10.732
Чебер	-10.7322
▁тала	-10.7322
Пыр	-10.7324
▁зарезьёс	-10.7332
▁кисьтӥ	-10.7344
▁гуаз	-10.7346
▁синтэм	-10.7356
▁вӧ	-10.7356
▁вӧдитч	-10.7368
▁шекъёс	-10.7375
▁выжыослы	-10.7378
ил	-10.7385
оло	-10.7389
▁ӧръёс	-10.7398
тылын	-10.7417
▁тушмонлэн	-10.7423
▁интыед	-10.7429
▁сюремъёс	-10.743
8-	-10.7433
▁ӝутӥськоз	-10.7435
Инмарзы	-10.7441
▁сӥзиськем	-10.7453
▁дӥся	-10.7455
▁ужъёсы	-10.7461
ном	-10.7461
▁юась	-10.7463
▁пырто	-10.7464
▁быдтӥ	-10.7465
▁китӥз	-10.7474
▁босьтӧ	-10.7475
мъёс	-10.7477
▁буйгатск	-10.7479
▁алекъяськ	-10.7483
▁эксэезлэн	-10.7492
.–	-10.7494
9-	-10.7502
▁инме	-10.7505
емын	-10.7512
косонъёсыз	-10.7519
ъяськем	-10.7521
▁чеберъяськ	-10.7521
ик	-10.7531
▁куто	-10.7534
▁мульы	-10.7537
▁сием	-10.754
▁кизись	-10.7554
▁мата	-10.7554
ӧдісны	-10.756
▁пӧрмытоз	-10.7586
▁пазьгы	-10.7588
▁Инме	-10.7588
▁усе	-10.7591
▁челядьлы	-10.7595
йылтэм	-10.7597
▁йӧтӥськы	-10.7597
▁кылзӥськись	-10.7601
▁марӟан	-10.7605
▁сюресъёссэ	-10.7609
▁татш	-10.7636
▁эксэйзы	-10.7641
иф	-10.7649
вны	-10.765
Вера	-10.7656
▁О	-10.7661
▁ӵокса	-10.7683
▁пушъет	-10.7685
▁садъёс	-10.7688
▁пӧя	-10.7695
дъя	-10.7708
дь	-10.771
▁нокинлы	-10.7714
▁чеберлык	-10.7716
Ед	-10.7725
▁котырысьтыз	-10.7729
▁эскере	-10.7735
▁бусые	-10.7737
▁люко	-10.7758
▁пырты	-10.7761
▁ужасьёс	-10.7763
▁пӧ	-10.777
▁бичан	-10.7772
▁кылӥсько	-10.7776
▁щитэ	-10.7782
кузьымзэ	-10.7787
▁уже	-10.7789
▁берыктӥськы	-10.7797
▁палан	-10.7798
▁улӥсьёсын	-10.7805
▁улмо	-10.7809
уд	-10.7811
лушкем	-10.7813
Курбон	-10.7818
▁дыръёсы	-10.7824
▁палэнтэ	-10.7825
▁возьмаськись	-10.7825
косонэ	-10.7834
▁пуны	-10.7839
▁Ра	-10.784
▁Малы	-10.784
▁бу	-10.7851
ъёсмы	-10.7859
нылпи	-10.7885
▁каръёс	-10.7899
▁веранъёс	-10.7912
▁косо	-10.7917
Ушъя	-10.7917
▁ошмесъёс	-10.7919
▁шедьтӥ	-10.7923
▁Ку	-10.7946
▁лэзе	-10.7948
ськомы	-10.7953
▁сётъяз	-10.7954
визьлык	-10.7958
▁юрттӥськись	-10.7959
юрт	-10.796
▁пыдесъяськ	-10.7964
▁кышкаты	-10.7967
толэзь	-10.7972
▁сиёнэн	-10.7973
▁Иосия	-10.7985
гурезь	-10.7994
▁шуг	-10.7994
Ассирия	-10.8
▁юо	-10.8005
▁курла	-10.8007
▁сикт	-10.8008
лӥд	-10.8009
кенешъёс	-10.8015
кодь	-10.8016
▁интыосы	-10.8019
▁яраос	-10.8022
чебер	-10.8024
▁Исаак	-10.8025
▁шӧй	-10.8026
Святой	-10.8026
▁косэм	-10.8027
▁кыв	-10.8033
Пересь	-10.8034
▁каронъёс	-10.8042
Ӧвӧл	-10.8042
▁каронэ	-10.8043
ымысьтыз	-10.8044
▁вутто	-10.8047
▁ӧтё	-10.805
▁паймы	-10.8054
2-	-10.8055
филиал	-10.8057
Нуны	-10.8061
крезь	-10.8062
шулдыръяськыса	-10.8063
юнматэм	-10.8064
быриз	-10.8064
нимо	-10.8064
каньыллык	-10.8064
быръем	-10.8065
ньыль	-10.8065
кышкасьтэм	-10.8065
котыр	-10.8065
Республика	-10.8065
тӥледлы	-10.8065
сётэм	-10.8065
визьмо	-10.8066
сю	-10.8066
ватӥськон	-10.8067
▁кутшӧмъяс	-10.8068
ӧвӧлтэм	-10.8068
Кир	-10.8069
агай	-10.807
▁пӧрми	-10.807
йӧнтэм	-10.807
▁васькись	-10.8071
▁шедьто	-10.8073
сюрс	-10.8074
ань	-10.8078
выжыысь	-10.8079
▁пуктӥсь	-10.808
▁куазь	-10.8082
тушмонъёсыз	-10.8085
▁Седекия	-10.8091
▁юрнуӧдысьяс	-10.8093
кӧс	-10.8094
▁страна	-10.8098
▁усто	-10.8099
▁палэнско	-10.8103
▁сьӧлӧм	-10.8104
улэпъёс	-10.8108
▁возъя	-10.811
медаз	-10.811
▁дугдӥз	-10.811
▁уськытэ	-10.8112
▁ветеран	-10.8113
Зэмлык	-10.8113
Сы	-10.8114
▁виёз	-10.8114
▁пазьгисько	-10.8115
▁гожтэт	-10.8117
▁саранча	-10.8118
няне	-10.8119
▁пуксе	-10.812
▁пӧрмытӥз	-10.812
▁усьтӥськоз	-10.812
▁кытш	-10.8121
▁тыпы	-10.8122
▁радэ	-10.8122
▁куашкатӥз	-10.8123
▁погыртылӥ	-10.8124
▁куасьто	-10.8124
Сиё	-10.8125
▁учыр	-10.8127
▁сводка	-10.8128
▁стрӧитӧм	-10.8128
▁ивортӥз	-10.8129
▁куашкатэ	-10.8129
▁сылӥз	-10.8132
▁поттӥськод	-10.8132
▁ортчоз	-10.8132
▁шока	-10.8133
▁каньыл	-10.8133
▁пегӟе	-10.8133
▁фарисейёс	-10.8135
▁духен	-10.8138
>13	-10.8142
пытшс	-10.8143
▁лэсьтӥськись	-10.8143
ТИТАН	-10.8148
▁рӧскод	-10.8148
▁тыбыр	-10.8148
▁рынок	-10.8148
▁тугоко	-10.8148
▁финалист	-10.8148
▁чинэзъя	-10.8148
▁школьникъяс	-10.8148
Жаля	-10.8148
мыдлане	-10.8148
▁титан	-10.8148
▁сьӧдчер	-10.8148
Зӥбыт	-10.8148
▁Юрнуӧдысь	-10.8148
Пичи	-10.8148
▁агаез	-10.8148
▁дерт	-10.8148
▁мыкыртэ	-10.8148
Вуоно	-10.8148
▁кизё	-10.8148
▁Назарет	-10.8149
▁мероприятиеяс	-10.8149
▁нылпиоссэ	-10.8149
▁ӵем	-10.8149
▁кысоз	-10.8149
▁лулдэ	-10.8149
▁уджавны	-10.8151
▁шоныд	-10.8151
Вина	-10.8152
▁азбаръёсаз	-10.8152
Меным	-10.8152
▁валэктон	-10.8152
▁катьтэммы	-10.8153
▁дурбасьтӥсьмы	-10.8153
▁ӝужалоз	-10.8153
▁сӧвмӧдӧмӧ	-10.8154
>202	-10.8154
▁лунӧдз	-10.8154
▁Дурбасьтӥсе	-10.8155
▁Аггей	-10.8155
▁Восор	-10.8155
▁сэрпалтэмын	-10.8155
▁пурысьта	-10.8155
▁Тофет	-10.8155
▁гондыр	-10.8155
▁потта	-10.8155
▁ӝуждалаез	-10.8156
▁вормыны	-10.8156
резьгур	-10.8156
очнӧй	-10.8157
▁малпанъёссы	-10.8157
Зор	-10.8158
▁уробоосыз	-10.8158
▁вӧлъяз	-10.8158
▁ульчаосаз	-10.8158
▁пушкысеныз	-10.8158
Тупа	-10.8159
▁индӧм	-10.8159
ӧма	-10.8159
▁люказ	-10.816
визыл	-10.816
▁тушмонъёссы	-10.816
▁вӧсяськисько	-10.8162
Сюй	-10.8162
▁ивортоз	-10.8162
▁дасялэ	-10.8162
▁берыктӥськод	-10.8164
▁чечыен	-10.8164
▁эскерон	-10.8166
▁кивалтонэз	-10.8166
▁керетыса	-10.8166
▁чипчирган	-10.8166
▁сизьыметӥ	-10.8166
Таиз	-10.8166
▁интыоссы	-10.8166
▁мырдэм	-10.8166
▁паймизы	-10.8166
▁Сирия	-10.8166
Инбам	-10.8167
▁берлане	-10.8168
▁утиськод	-10.8168
▁азинлыко	-10.8169
дзыс	-10.8169
▁кужмыныз	-10.8171
▁витьыса	-10.8172
▁киултэмын	-10.8173
▁понӥд	-10.8173
▁котырак	-10.8174
▁ӧтьыны	-10.8174
▁кисьтыны	-10.8174
▁кивалтӥсьёссы	-10.8176
▁дугдэ	-10.8177
▁кыез	-10.8177
▁КЫ	-10.8177
▁пегӟон	-10.8178
▁Кармил	-10.8178
▁арбериосты	-10.8178
▁визьмыныз	-10.8178
ылӥ	-10.8179
▁канжаськон	-10.818
Сиён	-10.8181
▁кузёйырзы	-10.8182
▁юрттыны	-10.8184
▁вермас	-10.8184
▁пуктӥсьёс	-10.8185
Ви	-10.8186
▁видзӧм	-10.8186
▁карылӥзы	-10.8186
▁мертаны	-10.8188
▁Атаймы	-10.8188
▁нокинэ	-10.8189
▁сюлэмдэ	-10.8189
▁тыршизы	-10.8189
▁кивалтӥсьёссэс	-10.819
▁кузьма	-10.819
▁Саул	-10.819
▁кесяське	-10.8191
▁100	-10.8192
▁лыктэлэ	-10.8194
▁малпанэз	-10.8195
▁юнматон	-10.8196
▁пурты	-10.8196
▁эксэйёссы	-10.8197
>5	-10.8197
▁куаем	-10.8198
▁Анаез	-10.8198
▁быгатом	-10.8198
▁улӥськомы	-10.8198
▁пуксьыса	-10.82
▁куректыса	-10.8201
▁бусыын	-10.8201
▁Содом	-10.8201
▁Есевон	-10.8201
▁кужмогес	-10.8202
▁сётӥсьтэм	-10.8202
▁данъялоз	-10.8204
▁пельёс	-10.8205
ыныды	-10.8206
▁люкасько	-10.8206
▁возьмалозы	-10.8206
твет	-10.8207
▁Ц	-10.8207
ӧмсӧ	-10.8208
▁кузёяськон	-10.8209
▁сюлмыныд	-10.821
▁шутэтскон	-10.821
▁Аммон	-10.8213
▁курыса	-10.8214
▁юаны	-10.8214
МИ	-10.8216
▁люкаса	-10.8216
▁пӧрт	-10.8217
▁котыртэм	-10.8218
валаны	-10.822
▁кӧлан	-10.8222
▁бугыръяськись	-10.8222
▁ивортозы	-10.8223
▁быгатод	-10.8223
тӧл	-10.8223
▁куасьмизы	-10.8224
▁Феман	-10.8225
▁бадӟымгес	-10.8226
▁шедьтӥзы	-10.8227
▁эксэйлыкез	-10.8227
▁кыско	-10.8231
▁вераськыса	-10.8232
▁водзын	-10.8232
▁шаер	-10.8233
▁усьыса	-10.8233
▁сьӧлыкъёсыд	-10.8237
▁юазы	-10.8237
▁быдэсмиз	-10.8238
▁урчитӧм	-10.8239
▁Иосифез	-10.8239
▁луысалзы	-10.8248
▁вожпотонэд	-10.8248
▁мозмытон	-10.8249
▁Дамаск	-10.8249
▁сьӧлыкъёссэ	-10.8249
▁уськытон	-10.8249
нам	-10.8254
▁сантэманы	-10.8258
▁нуизы	-10.8263
▁изьыез	-10.8263
Вӧсясько	-10.8265
▁воӧд	-10.8265
▁ваемын	-10.8267
▁лунӧн	-10.8268
▁бертӥз	-10.8272
▁югдытӥ	-10.8272
▁кы	-10.8276
▁Данииллы	-10.828
▁тылыз	-10.8283
▁пӧрмизы	-10.8283
алы	-10.829
▁кариськоды	-10.829
Шӧ	-10.8293
▁пыризы	-10.8293
▁йырзы	-10.8299
Кышка	-10.8307
пи	-10.8311
▁луоно	-10.8315
адямилы	-10.8319
▁дугдылы	-10.832
▁Авраамлы	-10.8321
▁духъёс	-10.8329
▁нуналъёсты	-10.8329
▁поттэмын	-10.8332
▁Быдӟым	-10.8332
▁ужед	-10.8338
».*	-10.8344
▁мам	-10.835
▁возид	-10.835
,–	-10.8351
ӝикаса	-10.8353
▁Пие	-10.8356
▁ысты	-10.8359
Син	-10.8359
▁кылтэм	-10.836
▁дэри	-10.8363
▁вераськод	-10.8364
▁изкаре	-10.8367
▁книгае	-10.837
▁Авраамлэн	-10.8371
рнӧй	-10.8374
▁кизы	-10.8385
▁улвайёс	-10.8387
▁йӧзӧ	-10.8396
▁сисьмон	-10.8398
▁ворсэт	-10.8399
▁нёжалъёсы	-10.8401
▁берыктӥське	-10.8402
▁сюлмысьтым	-10.8406
Ой	-10.8408
▁шибоды	-10.8411
▁макеослы	-10.8411
▁законэд	-10.8412
▁кожы	-10.8419
шу	-10.8424
▁быгатӥсьтэм	-10.8431
огзэ	-10.8433
▁туга	-10.8438
▁киызлэсь	-10.844
▁пашме	-10.8444
▁кыск	-10.8445
▁лӧсьӧд	-10.8447
▁кышкало	-10.8449
▁сэк	-10.8452
▁нылызлэн	-10.8453
ытозям	-10.8455
▁Моисейлы	-10.8458
▁сюйлэсь	-10.8464
▁судэн	-10.8468
▁уломе	-10.8475
▁коркан	-10.8479
кузьымъёс	-10.8482
▁нуӧдіс	-10.8491
яськыса	-10.8491
▁кузёос	-10.85
▁кортлэсь	-10.8501
▁бервыл	-10.8508
ъяськон	-10.8508
▁йылтӥ	-10.8516
ИН	-10.8521
▁суй	-10.8527
▁югытэ	-10.8538
Верам	-10.8548
▁нуэм	-10.8552
чи	-10.8557
▁кунянъёс	-10.8565
дт	-10.8571
▁кутскон	-10.858
▁шуон	-10.8582
▁могмӧд	-10.8586
шулдыръяськон	-10.8602
ул	-10.8605
▁гож	-10.8616
▁берыктыса	-10.8619
ымыд	-10.8619
тэмъёс	-10.8636
▁ванды	-10.8638
зэм	-10.864
▁султэм	-10.8641
▁коркае	-10.8646
▁лэсьтӥсьлы	-10.8651
▁тыршо	-10.8652
слон	-10.8654
▁мылкыды	-10.8655
▁кутэм	-10.8656
▁лёгало	-10.8659
▁врач	-10.8663
пророк	-10.8679
▁анайзэ	-10.8697
ысьтыды	-10.8704
Кылзэ	-10.8709
▁юал	-10.8716
СЫ	-10.8723
▁куссэ	-10.8727
дыс	-10.8742
▁сантэма	-10.8744
мтэзы	-10.8745
Тушмонъёс	-10.8748
▁улэмъёсме	-10.8749
▁вайис	-10.8755
▁буйгатскы	-10.8773
пель	-10.8787
ӧр	-10.8787
▁шонерлыксэ	-10.88
дылэсь	-10.8812
ъясын	-10.8817
едлэн	-10.8818
Нылпиос	-10.882
▁кужымдэ	-10.8824
▁кышкытлык	-10.8848
ел	-10.8862
▁уно	-10.8865
▁арам	-10.8867
▁будэм	-10.8868
▁зурказ	-10.887
▁служ	-10.8878
иське	-10.8889
палкышно	-10.8891
▁пуктыло	-10.8893
ъяське	-10.8894
▁пиослэсь	-10.8897
як	-10.8901
▁шобыртэм	-10.8918
].	-10.8921
лексэ	-10.8928
Синъёс	-10.8938
▁понда	-10.894
▁городлы	-10.8955
▁лили	-10.8969
атай	-10.8974
6-	-10.899
▁азь	-10.8995
вӧ	-10.9003
ви	-10.9014
ымзэс	-10.9025
Ва	-10.9034
▁До	-10.9055
▁излы	-10.9055
▁будэто	-10.9057
▁тушмонэ	-10.9057
▁тодонлык	-10.9063
▁адӟонэ	-10.907
▁удыс	-10.9073
▁сьӧр	-10.9074
▁улляло	-10.9075
▁шуд	-10.9076
▁аттьӧала	-10.9078
▁лэзьыса	-10.9083
▁вӧсяське	-10.9086
▁кисьтӥсько	-10.9089
уган	-10.9106
▁усьтыса	-10.9113
▁будэ	-10.9121
▁адэ	-10.9123
▁кунян	-10.9133
▁дыдыкъёс	-10.914
▁ляльчиос	-10.9143
▁йыбыртъяло	-10.9153
▁шумпоты	-10.9153
▁шаеръёсысь	-10.9157
ир	-10.9159
▁чеберъянъёс	-10.9161
▁синъёстэ	-10.9162
▁сӧвмӧд	-10.9178
▁гурезьёсы	-10.9185
▁ол	-10.9192
▁кисьтӥське	-10.9195
▁ӝутско	-10.9208
Кинэ	-10.9215
▁мултэс	-10.9223
);	-10.923
▁няньзэ	-10.9251
▁вие	-10.9256
▁куронъёсыз	-10.9258
▁гудыр	-10.9259
ёслы	-10.9263
огеныз	-10.9266
▁куашкатӥсь	-10.9277
Кылзӥськ	-10.9278
▁кулонэ	-10.9278
▁пельзэ	-10.9292
▁йӧтӥське	-10.9305
▁пилэн	-10.9308
▁казь	-10.9309
▁Лу	-10.9316
▁ветлӥсько	-10.9318
акем	-10.9319
ада	-10.9319
воже	-10.9333
▁серекъя	-10.9345
▁ужъёсме	-10.9346
▁кураськись	-10.9351
>8	-10.9355
▁вӧсяськемзэ	-10.9358
тушмонъёсы	-10.936
▁емышъёс	-10.9361
▁вом	-10.9363
▁улэмъёс	-10.9371
▁погырты	-10.9377
кужым	-10.9385
▁ужъёслэсь	-10.9389
▁быдэсъян	-10.939
▁нуллэ	-10.939
▁пырысьяс	-10.9391
▁тушмонъёстэ	-10.9398
сылы	-10.9418
▁гранат	-10.9422
ымзэ	-10.9434
▁чеберъяськись	-10.9441
асьме	-10.9443
▁ватӥське	-10.9448
ом	-10.9448
аслэсьты	-10.9451
би	-10.9452
▁вылтӥяськись	-10.9454
▁зіл	-10.9457
▁лэзья	-10.9463
▁объект	-10.9465
гу	-10.9468
▁нуллы	-10.9469
куро	-10.9469
ожмаськ	-10.9471
Ачи	-10.9472
Сӥ	-10.9475
▁ченгешон	-10.9475
ӥлесьтыд	-10.9476
Выль	-10.9479
▁й	-10.9479
▁нуӧд	-10.948
▁нуналысен	-10.948
▁палэнто	-10.9481
Нырысь	-10.9483
йыг	-10.9483
быт	-10.9487
▁судьяос	-10.9487
пукыӵ	-10.9488
Войвыв	-10.9488
пересь	-10.9488
вырйылъёс	-10.949
шудо	-10.949
огшоры	-10.949
вылтӥяськыса	-10.9491
чырты	-10.9491
лымшор	-10.9492
Соломон	-10.9492
начар	-10.9492
престол	-10.9492
шайгуэ	-10.9492
Исаия	-10.9493
визьнодо	-10.9493
атайёсмы	-10.9493
гольык	-10.9493
шимес	-10.9493
язычникъёс	-10.9493
ческыт	-10.9494
кулэтэм	-10.9494
ӧвӧл	-10.9494
огазе	-10.9494
уйин	-10.9495
аслыз	-10.9495
кӧня	-10.9495
Эфиопия	-10.9496
сюлэмдэс	-10.9499
эскерыса	-10.95
Сӥонэ	-10.9502
корт	-10.9503
Гад	-10.9505
Феман	-10.9505
Во	-10.9506
▁начальник	-10.9507
▁виыло	-10.9507
▁Иоаким	-10.9508
▁мастер	-10.951
тэмез	-10.9513
▁уллясь	-10.9515
▁ӝутӥсь	-10.9516
▁сюлмаськы	-10.9516
▁возиськы	-10.952
Сыктывкарса	-10.9521
▁дыш	-10.9523
лулме	-10.9526
▁изкаръёс	-10.9526
▁утиськы	-10.9527
▁кыллись	-10.9528
▁вӧсяськы	-10.9528
▁пегӟо	-10.9531
▁ортче	-10.9531
▁нимыны	-10.9535
▁сюриз	-10.9536
▁городъёсы	-10.9538
▁венецъёс	-10.9538
▁бугырскиз	-10.9538
Гажа	-10.9538
▁палэнскиз	-10.9539
▁архиерей	-10.9539
▁дугдоз	-10.9541
▁веж	-10.9542
▁збыльмӧдӧ	-10.9542
тчыд	-10.9542
▁15	-10.9544
▁куашкалоз	-10.9545
уназе	-10.9545
тарканы	-10.9545
▁корало	-10.9548
реб	-10.9548
▁киултоз	-10.9549
▁ӧрекчаськы	-10.9549
▁кытч	-10.9549
▁кужымлык	-10.955
▁возьмало	-10.955
▁чут	-10.955
▁муртъёссэ	-10.9551
Чакла	-10.9551
▁кариськиз	-10.9552
Возьма	-10.9552
▁вошто	-10.9552
▁пыдэсаз	-10.9553
▁кутшӧм	-10.9554
▁атаед	-10.9554
Уйпал	-10.9555
▁уськытъя	-10.9555
▁шон	-10.9556
кема	-10.9558
▁келяло	-10.956
▁пуктэт	-10.9563
▁сантэмало	-10.9563
▁Архиерей	-10.9563
▁курадӟись	-10.9565
▁зӧк	-10.9566
▁киултэм	-10.9569
Куд	-10.9569
▁сульдэръёссэ	-10.9569
Иудеяын	-10.957
одӥгез	-10.957
▁йыбырттэ	-10.9571
Корт	-10.9573
▁мераяс	-10.9573
Адӟи	-10.9574
▁Юралыс	-10.9574
Азьлан	-10.9575
ассэ	-10.9575
/	-10.9577
Лымшор	-10.9577
Ожмаськон	-10.9577
желаний	-10.9577
Ӧні	-10.9577
▁Морозов	-10.9577
▁дінму	-10.9577
▁кельшымон	-10.9577
▁майтӧг	-10.9577
▁ненег	-10.9577
▁прӧчент	-10.9577
Вакчи	-10.9577
▁гӧгӧртас	-10.9577
▁документ	-10.9577
▁комплекс	-10.9577
▁корзина	-10.9577
▁оборудование	-10.9577
▁тэркы	-10.9577
Нянь	-10.9577
▁кампет	-10.9577
▁оланпас	-10.9577
WorldSk	-10.9577
▁ладан	-10.9577
▁ӝуатскыку	-10.9577
Ваелэ	-10.9577
ируйтӧм	-10.9577
Кышномурт	-10.9577
Мынэлэ	-10.9577
Аравия	-10.9577
Султэлэ	-10.9577
▁юнматӥд	-10.9577
▁сураськем	-10.9577
поч	-10.9577
▁кылӥськиз	-10.9577
▁коми	-10.9578
▁выры	-10.9578
▁эзылыса	-10.9578
▁дышетске	-10.9578
▁возиськись	-10.9578
▁ужрад	-10.9579
▁дэлетэныз	-10.9579
▁татысь	-10.9579
▁примитӧм	-10.9579
▁возьматӥсь	-10.9579
▁ортчытозь	-10.9579
▁вешт	-10.958
▁сиисьёс	-10.958
▁тодэмъя	-10.958
▁гырысь	-10.958
▁мисьтӥськон	-10.958
▁сюдо	-10.958
▁питран	-10.9581
Матысь	-10.9581
▁зэмлыкоесь	-10.9581
▁юалӧмъяс	-10.9581
Нырысетӥез	-10.9582
▁дӥсянэн	-10.9582
▁тырытозь	-10.9583
▁могъяссӧ	-10.9583
▁югытлык	-10.9583
▁тэныд	-10.9583
▁периос	-10.9584
▁Вифлеем	-10.9584
▁Елиаким	-10.9584
▁узвесь	-10.9584
▁куаныса	-10.9584
Сьӧлыкоос	-10.9585
▁гудыртоз	-10.9585
▁кыпӧдӧм	-10.9585
▁техника	-10.9586
▁люкаськыса	-10.9586
▁бугыръяськон	-10.9586
кырсь	-10.9586
▁шӧм	-10.9586
▁мӧд	-10.9586
▁ӟудыса	-10.9587
▁Сеир	-10.9587
▁возьдаськозы	-10.9587
▁вералляй	-10.9588
нымӧс	-10.9588
▁кысэ	-10.9588
▁дорам	-10.9589
▁уджалӧмысь	-10.9589
▁мертало	-10.959
▁укшатыса	-10.959
▁улэмдэ	-10.959
▁лыдӟе	-10.959
▁яраосыз	-10.9591
▁шудтэм	-10.9592
▁вераллязы	-10.9592
▁луонтэмесь	-10.9592
Вай	-10.9592
▁лулыныз	-10.9592
▁кузёйыръёсыз	-10.9592
▁басьтӥд	-10.9592
▁куректӥсько	-10.9593
▁малпанъёссэ	-10.9593
▁гожтӥз	-10.9593
▁ордйысьӧмъяс	-10.9594
▁жильыет	-10.9594
▁пельтыса	-10.9595
▁дӥсянэз	-10.9595
▁визьем	-10.9595
Из	-10.9595
▁шумпотэлэ	-10.9595
▁сётӥсез	-10.9596
▁пул	-10.9596
мысэтӥ	-10.9596
▁визьмоесь	-10.9596
алозы	-10.9596
▁оскиськись	-10.9597
▁нуыны	-10.9597
▁утисьёс	-10.9597
▁кенешсы	-10.9597
▁ТЭЦ	-10.9598
▁Симон	-10.9598
▁кулэяськонъёсыз	-10.9598
▁кышкалозы	-10.9598
кайгырон	-10.9598
▁бӧрдоз	-10.9599
▁вожпоттон	-10.9599
▁дона	-10.9599
▁дӥсяськемын	-10.9599
▁уськытыны	-10.9599
▁эмбур	-10.96
”».*	-10.96
▁мозмытӥсь	-10.96
Пророкъёс	-10.9601
▁ивортыны	-10.9601
▁кесяськозы	-10.9601
▁викышъялэ	-10.9601
▁Даниилэз	-10.9602
▁выллемесь	-10.9602
▁важ	-10.9602
▁гижысь	-10.9602
▁визьмогес	-10.9602
▁вирынызы	-10.9602
▁нималэ	-10.9604
▁думи	-10.9604
▁учреждениеяс	-10.9604
эзель	-10.9604
уродлык	-10.9604
▁сӧризы	-10.9606
▁братэз	-10.9606
▁шаерын	-10.9607
▁зуркалозы	-10.9608
▁шумпотӥсько	-10.9608
▁малпанэн	-10.9608
кузы	-10.9609
▁атайзэ	-10.9609
▁пудоосты	-10.961
▁шуна	-10.961
▁борддоръёсыз	-10.9611
▁Утисьмы	-10.9611
▁Кидар	-10.9611
▁вылькен	-10.9611
Вавилонысь	-10.9612
▁вырӟылы	-10.9612
▁интыысеныз	-10.9612
▁Аарон	-10.9612
▁кышнооссы	-10.9613
▁лулдэс	-10.9614
▁палэн	-10.9615
▁кутэмын	-10.9615
▁вискы	-10.9615
▁семьяяс	-10.9616
▁югдытэ	-10.9616
▁куинетӥез	-10.9616
▁тылобурдоосты	-10.9617
▁Кылчинъёсыз	-10.9617
▁малпаськоды	-10.9618
▁нылпиоссэс	-10.9618
▁мугоро	-10.9618
▁витё	-10.9619
▁сюресъёстэ	-10.9619
▁адӟытэк	-10.962
▁ӝутӥськыса	-10.9621
▁ярасьтэм	-10.9622
▁тодытэмын	-10.9622
▁гурезез	-10.9622
▁киултозы	-10.9623
▁зэмлыкед	-10.9623
▁пуктоз	-10.9625
▁пересьёс	-10.9625
▁кутсконысенызы	-10.9627
▁дӥськутсэс	-10.9627
▁уджаліс	-10.9629
ветлан	-10.9629
▁усьтӥськозы	-10.963
▁вылтӥяськонэз	-10.963
ылозы	-10.9631
▁вежысьлы	-10.9632
▁мугорыз	-10.9634
▁выжыозяз	-10.9635
▁утчалозы	-10.9636
▁Васанысь	-10.9636
▁вазиськизы	-10.9637
▁эксэйёсыз	-10.9637
▁тёрнпу	-10.9639
▁Сӥдон	-10.9639
▁тыре	-10.964
▁ишакез	-10.9641
▁кырӟалозы	-10.9644
ига	-10.9645
▁шедьтыны	-10.9646
▁кариськоз	-10.9646
тыршисьёс	-10.9647
▁йылъёсаз	-10.9648
▁проектъяс	-10.9649
▁адӟод	-10.9649
▁вазиськыса	-10.9649
Иерусалимын	-10.965
тӥни	-10.965
▁казя	-10.9651
▁усьтӥськизы	-10.9651
▁нуналъёсазы	-10.9651
▁Мугор	-10.9652
▁саптаськы	-10.9652
▁ыстӥсько	-10.9653
▁адӟимы	-10.9653
▁эриктэ	-10.9656
▁быгатомы	-10.9657
▁синмысьты	-10.9659
▁сульдэрез	-10.9659
▁пиосыд	-10.9662
ытозь	-10.9663
▁куштон	-10.9665
▁Вааллы	-10.9666
тысян	-10.9666
▁палэнтон	-10.9667
▁пиостэ	-10.9667
▁интыосын	-10.9667
▁тырмиз	-10.9667
▁учкозы	-10.9668
▁Войвыв	-10.9668
▁куно	-10.9669
▁вылысьтым	-10.967
▁арлыд	-10.967
▁ужъёстэс	-10.9672
даноос	-10.9677
▁дӥськутэз	-10.9679
▁анаед	-10.9679
▁ултӥяны	-10.9682
▁шумпотонэз	-10.9682
▁сяськаос	-10.9687
▁кышкатон	-10.9688
▁Сӥонэ	-10.9691
▁яратонэз	-10.9691
▁На	-10.9691
▁каланчаос	-10.9692
▁вый	-10.9692
▁султыто	-10.9695
Аз	-10.9695
▁нылъёсты	-10.9696
▁котыртӥ	-10.9697
▁ом	-10.9698
▁кельтыны	-10.9702
▁бырйи	-10.9705
▁нылпиосы	-10.9705
▁данлыкед	-10.9709
▁мульыос	-10.9709
▁мылкыддэ	-10.9719
▁святойёс	-10.9722
▁берды	-10.9722
▁гудӟем	-10.9723
Лю	-10.9728
▁улондэс	-10.9732
▁директорлы	-10.9733
▁кескичлык	-10.9734
▁сэн	-10.9735
▁ваське	-10.9736
▁ужаз	-10.9737
▁пумитазы	-10.9742
животъёс	-10.9743
▁Еле	-10.9743
▁Сӥонэз	-10.9744
▁тём	-10.975
▁лулмугоры	-10.9753
▁вой	-10.9753
▁капкаез	-10.9756
▁шундыез	-10.9758
▁яратэм	-10.9759
лыкез	-10.976
▁тус	-10.9767
▁ру	-10.9771
Шундыӝужан	-10.9774
▁кылозы	-10.9775
▁муртъёсы	-10.9775
▁нылпиез	-10.9777
▁ӝутозы	-10.9777
▁берад	-10.9782
▁курадӟе	-10.9793
▁16	-10.9797
Тод	-10.98
▁улазы	-10.9801
азе	-10.9802
▁ватӥськы	-10.9804
▁тылобурдоослы	-10.9804
▁инмаръёслы	-10.9806
▁ватэм	-10.9807
▁ыргонлэсь	-10.9822
▁Иудаез	-10.9827
▁пытсэт	-10.9827
▁уджын	-10.9831
▁кутыл	-10.9834
▁быдтэм	-10.9834
▁Иудеяын	-10.9835
▁пудоез	-10.9837
▁кылемзэ	-10.9838
▁пророкъёслэсь	-10.9839
ног	-10.9843
пыдул	-10.9855
▁сьӧлыкъёссы	-10.9856
пельыны	-10.9857
▁Анатольев	-10.9864
▁саламъёс	-10.9868
▁киысьтыд	-10.9875
▁вы	-10.9877
▁кулэмын	-10.9884
▁йыромон	-10.9889
▁ветлӥськод	-10.9896
кинэ	-10.9898
яслы	-10.9907
▁кылемез	-10.9908
▁вия	-10.9911
▁шумпот	-10.9913
▁пророкъёслы	-10.9916
▁чер	-10.9928
▁сюресъёсыд	-10.9933
▁пушсэ	-10.9933
▁ӝуато	-10.9935
▁балаганъёс	-10.9937
▁думе	-10.9941
▁дауръёслы	-10.9941
▁утиськоз	-10.9943
палтӥз	-10.9944
Вуос	-10.9952
▁дзуг	-10.9953
Инмаред	-10.9955
ськем	-10.9957
шуръёс	-10.9958
▁умойтэм	-10.9961
▁Кылдытӥсь	-10.9961
▁кизем	-10.9962
▁кеся	-10.9967
▁кылъёссы	-10.9969
▁воже	-10.9972
▁кужымзы	-10.998
▁Иосифлэн	-10.9981
▁макес	-10.9986
▁сетӧ	-10.9988
▁лыоссэ	-10.9992
▁юнма	-10.9994
▁Навуходоносорлэн	-11.0001
пилемъёс	-11.0004
▁пиед	-11.0005
▁синъёсыныз	-11.0005
азвесь	-11.0007
▁пӧйшуръёслы	-11.0015
▁шуя	-11.0022
▁ӧрекча	-11.0028
▁язычникъёслы	-11.003
▁8	-11.0039
▁кырысь	-11.004
▁дыръяд	-11.0046
гр	-11.0052
евалы	-11.0054
Бусы	-11.0063
▁котырто	-11.0063
5	-11.0069
ӧмӧн	-11.0071
тэмесь	-11.0072
▁огез	-11.0073
▁понӥ	-11.0084
▁визян	-11.0091
▁адӟеме	-11.0095
чнӧй	-11.011
тылы	-11.0115
▁кылыным	-11.0133
▁котырт	-11.0135
Шур	-11.0147
Уй	-11.0156
▁пыдэск	-11.016
▁сётод	-11.0162
выв	-11.0168
▁бадӟымез	-11.017
▁Зэм	-11.0171
ултӥям	-11.0184
▁луэмен	-11.0194
▁пукыӵсэ	-11.0195
сылэсь	-11.0203
фа	-11.0204
▁эксэезлы	-11.0212
▁уйиськы	-11.0224
илия	-11.0226
▁гудӟ	-11.0229
тупатэм	-11.0241
▁йыбыртъясь	-11.0242
▁люкась	-11.0247
▁ымаз	-11.0252
ӥсез	-11.0256
▁тушмонъёс	-11.0263
▁талам	-11.0264
капка	-11.0264
выжыос	-11.0271
▁визьнодоос	-11.0272
▁калыкелы	-11.0278
▁ужан	-11.0296
▁понэм	-11.0299
остэс	-11.03
▁котькыты	-11.0303
▁кышкасьтэмлы	-11.0308
вылыс	-11.0313
▁катьтэмми	-11.0315
▁черекъя	-11.0329
▁Ше	-11.0335
▁уджъяс	-11.0339
ика	-11.0348
нтэм	-11.0348
▁Инмармылэн	-11.035
▁гурезьлы	-11.0353
▁дӥськутэ	-11.0353
▁басма	-11.0363
эмын	-11.0369
▁нулло	-11.0376
нӥсь	-11.0378
▁пиезлэсь	-11.0405
тод	-11.0406
▁синтэмъёс	-11.0408
▁шедемъёс	-11.0416
▁Республикалы	-11.0425
▁Ог	-11.0437
▁тышка	-11.0443
остэ	-11.0444
▁З	-11.0446
▁ст	-11.0448
▁дасьта	-11.0458
▁Рем	-11.0481
▁пуктӧм	-11.0489
кор	-11.0499
▁кӧл	-11.0504
Ӟечлык	-11.0508
▁музъемлэсь	-11.0514
дзи	-11.0516
▁йыркуре	-11.0516
Ум	-11.0528
мылэн	-11.0532
▁Атае	-11.0542
Быд	-11.0543
▁визьмаське	-11.0547
кыс	-11.0548
▁тылы	-11.0558
ульча	-11.0562
▁пӧрмы	-11.0573
▁код	-11.0573
лан	-11.0576
▁шонерлыкен	-11.0581
Шуръёс	-11.0612
▁лыктӥсьёс	-11.0614
ысалзы	-11.0623
кӧт	-11.0629
▁вырйыл	-11.063
▁косы	-11.0633
ыным	-11.0634
ерв	-11.0642
▁вакыт	-11.0659
Эксэйёс	-11.0667
▁палкышноос	-11.0677
▁Сӥ	-11.0677
▁выйы	-11.0685
▁пачылмы	-11.0687
▁дэрем	-11.0695
▁куштӥськись	-11.071
▁гожъя	-11.072
▁Мозмытӥсь	-11.0727
▁султытэ	-11.0733
▁шӧд	-11.0744
Вӧ	-11.0746
ылӥд	-11.0746
▁нунызэ	-11.0751
▁вӧль	-11.0751
▁нылъёссэ	-11.0751
▁кутон	-11.0755
▁ана	-11.0756
▁атае	-11.0777
▁валэкты	-11.0785
меныз	-11.0787
сяньыс	-11.0789
сьыд	-11.0791
ъяськись	-11.0793
▁куашкатон	-11.0795
▁судья	-11.0795
▁улонме	-11.0799
▁визьмам	-11.0801
Сёт	-11.0804
▁ди	-11.0805
▁адӟиськоз	-11.0809
▁ивортӥ	-11.0812
▁мынӥсько	-11.0814
▁городъёсын	-11.0815
▁пачыла	-11.0815
>7	-11.0817
тар	-11.0819
▁Атай	-11.0824
▁лушкаськы	-11.0835
▁тэтчы	-11.0835
ум	-11.0838
лом	-11.0839
▁вози	-11.0853
▁эшъёс	-11.0854
▁пуктэтъёс	-11.0856
▁мадёнъёс	-11.0865
▁пукы	-11.0869
▁кӧсйӧ	-11.0871
▁юкӧнӧ	-11.0876
▁туно	-11.0879
салыд	-11.0881
▁ӵуш	-11.0885
Ляльчи	-11.0886
гым	-11.0886
▁улмоос	-11.0887
▁кура	-11.0896
язы	-11.0899
▁дӥсян	-11.0909
▁сюлмаське	-11.0913
мылкыд	-11.0916
Аслы	-11.092
▁вуись	-11.0925
▁кырым	-11.0925
▁шонаськы	-11.0925
илемыз	-11.0926
▁быдэсъясь	-11.0926
▁Анатол	-11.0938
Ц	-11.0947
▁уродлэсь	-11.0952
ватӥськыны	-11.0961
Авраам	-11.0966
▁гаж	-11.0974
▁яратӥз	-11.098
▁коль	-11.0983
▁вылэм	-11.0985
▁келя	-11.0994
▁косэ	-11.1014
данлык	-11.1015
▁ӝутски	-11.1026
>6	-11.1039
▁ньылэ	-11.1049
▁кечпи	-11.1052
бусы	-11.1067
лӥмы	-11.1074
▁кисьтон	-11.1075
нец	-11.1082
▁уськыто	-11.1085
▁медаль	-11.1086
▁сётӥсьёс	-11.109
ЕТ	-11.1092
▁ужлэсь	-11.1096
лулмугор	-11.1096
▁сык	-11.1097
Сыктывкар	-11.1098
КА	-11.1103
ӵ	-11.1104
Вожпотон	-11.1104
▁спортсмен	-11.1111
▁сёрнит	-11.1113
▁кӧло	-11.1117
возьма	-11.1124
▁сӥзи	-11.1129
эскере	-11.1129
вожпотон	-11.1131
І	-11.1134
ляльчи	-11.1137
▁катьтэмме	-11.1139
▁берг	-11.1141
анае	-11.1142
Регион	-11.1145
гыр	-11.1145
Кор	-11.1148
▁эмъя	-11.1149
Завулон	-11.1149
югыт	-11.1149
Иессей	-11.115
Рувим	-11.1152
Юр	-11.1153
▁пуки	-11.1153
куашкан	-11.1153
ӵук	-11.1154
Мугор	-11.1155
борддор	-11.1155
Аммон	-11.1156
Мелхиседек	-11.1156
▁вискысь	-11.1156
шулдыръяське	-11.1156
ӵушкась	-11.1157
гумы	-11.1157
чурыт	-11.1158
серекъян	-11.1159
виноградпуд	-11.1159
гажась	-11.1159
майбыр	-11.116
туннэ	-11.116
пинал	-11.116
сӥзён	-11.116
таӵе	-11.116
ӝог	-11.1161
юртъёссэ	-11.1161
сьӧлтэтъёс	-11.1161
янгыштэм	-11.1161
вазь	-11.1161
▁пункт	-11.1162
▁киська	-11.1163
кытчы	-11.1163
▁сьӧкыд	-11.1164
ымысьтым	-11.1165
▁пыдэсэ	-11.1166
▁лыдыс	-11.1169
оскон	-11.117
шулдыръяськозы	-11.117
уть	-11.117
▁тырши	-11.1173
▁производство	-11.1174
бусыысь	-11.1176
▁оскиськисьёс	-11.1176
Шу	-11.1177
Ымныр	-11.1178
▁кивалтӥсьсы	-11.1179
▁Ассириялэ	-11.1179
пеймытлык	-11.1186
▁инвестиция	-11.1187
турын	-11.119
Узыр	-11.1193
сюй	-11.1194
яслӧн	-11.1194
АПОСТОЛ	-11.1195
▁кивалтӥсез	-11.1197
▁мугорзэ	-11.1198
▁погыртэ	-11.1198
▁быгатӥсько	-11.1199
▁осконэ	-11.1201
▁дышетӥз	-11.1201
▁поттӥсько	-11.1201
▁утчасько	-11.1202
троссэ	-11.1202
▁учкисько	-11.1203
Миле	-11.1204
▁вордскытӥ	-11.1205
▁вырӟиз	-11.1205
дуно	-11.1205
▁интыяськиз	-11.1207
▁нимало	-11.1207
шӧд	-11.1207
▁сутӥз	-11.1207
▁кияд	-11.1208
вӧйын	-11.1209
▁пограло	-11.121
▁зырӟем	-11.121
▁вузо	-11.1211
▁шумпотӥз	-11.1211
▁сутоз	-11.1211
уродэз	-11.1212
▁пукси	-11.1215
▁вунэтӥз	-11.1216
▁сётылӥз	-11.1216
▁буд	-11.1216
ап	-11.1217
▁сётӥськы	-11.1218
▁быръё	-11.1218
▁куалектӥз	-11.1219
▁луэменыз	-11.1221
▁юӧртіс	-11.1223
▁вунэтэ	-11.1223
▁Ха	-11.1224
▁Левий	-11.1224
▁пӧрмытӥд	-11.1224
▁пукиз	-11.1225
▁интыосаз	-11.1225
▁усид	-11.1225
▁спортсменъяс	-11.1225
▁сёй	-11.1225
▁вошты	-11.1227
▁погралоз	-11.1227
▁олан	-11.1228
▁пыдкутчан	-11.123
▁шедьтоз	-11.1231
▁кеч	-11.1231
сьмаса	-11.1231
▁гожъян	-11.1232
▁пазьгиськоз	-11.1232
▁кышкась	-11.1239
кыда	-11.1239
▁пыдйылчи	-11.1242
Вылтӥяськ	-11.1242
▁сетка	-11.1242
▁йылпумъя	-11.1242
▁духе	-11.1243
▁кутсконысен	-11.1243
седек	-11.1243
D	-11.1243
a	-11.1243
Ӝужыт	-11.1243
Ӧжыт	-11.1243
▁Лукабанядор	-11.1243
▁заведуйтысьлы	-11.1243
▁саддукейёс	-11.1243
Быгатӥськод	-11.1243
Кыкетӥ	-11.1243
Сайка	-11.1243
Секыт	-11.1243
▁Кӧрткерӧс	-11.1243
▁Семиков	-11.1243
▁Сеннахирим	-11.1243
▁Ыжпи	-11.1243
▁алдаськон	-11.1243
▁ведомство	-11.1243
▁единица	-11.1243
▁карточкаяс	-11.1243
▁кырмышъя	-11.1243
▁печатен	-11.1243
▁прӧйдит	-11.1243
▁пӧвстын	-11.1243
▁условиеяс	-11.1243
▁яндзим	-11.1243
▁ӟустари	-11.1243
▁Russ	-11.1243
▁Ефимович	-11.1243
▁Сметанина	-11.1243
▁кельшись	-11.1243
▁кесарьлы	-11.1243
▁сапфир	-11.1243
Равва	-11.1243
▁пеймытомоз	-11.1243
▁видлалісны	-11.1243
▁котельнӧй	-11.1243
▁шонтан	-11.1243
▁нырулы	-11.1243
Адӟем	-11.1243
Дедан	-11.1243
Ӝог	-11.1243
▁бизнес	-11.1243
рабо	-11.1243
▁веськӧдӧм	-11.1244
Йӧнтэм	-11.1244
▁Гоморра	-11.1244
▁чемпионка	-11.1244
▁Анайзэ	-11.1244
▁Пукись	-11.1244
▁ворсӧмъяс	-11.1244
▁шобыртӥд	-11.1244
▁ӝутӥськиз	-11.1244
▁статистик	-11.1244
▁субботаосме	-11.1244
▁вииллям	-11.1244
▁псалтир	-11.1244
▁ефа	-11.1244
Ыстэм	-11.1244
▁тодэмзыя	-11.1244
▁пызан	-11.1244
▁кыпыд	-11.1244
▁урдыса	-11.1245
Лыктэлэ	-11.1245
▁чаклаське	-11.1245
▁вӧлмытэ	-11.1245
▁камыш	-11.1245
▁юрттӥсьмы	-11.1246
▁раз	-11.1246
фили	-11.1246
▁сектало	-11.1246
▁лэсьтӥсез	-11.1246
▁тіянӧс	-11.1246
▁быгатӥське	-11.1246
▁кезьыт	-11.1247
жалянэныд	-11.1247
▁устоесь	-11.1247
▁чолӧмаліс	-11.1247
▁огнад	-11.1247
▁кышкатскозы	-11.1247
▁вортто	-11.1248
▁курмем	-11.1248
▁улытозям	-11.1248
▁Ниневия	-11.1248
▁таркась	-11.1248
Викышъя	-11.1248
Вапумъёс	-11.1248
▁чакласькыса	-11.1249
▁пиньёсыз	-11.1249
Сютэм	-11.1249
▁пуктӥськод	-11.125
иная	-11.125
▁возисез	-11.125
▁сюлмаськытэк	-11.1251
▁утиськомы	-11.1251
▁Сӥгон	-11.1251
▁палэнскоз	-11.1251
▁бырйыны	-11.1251
▁культура	-11.1251
▁быгатӥськомы	-11.1252
▁сынаськонэ	-11.1252
▁кепыра	-11.1252
▁дышетӥськод	-11.1252
▁возьыса	-11.1252
▁серпас	-11.1253
▁Рытыв	-11.1253
▁Кылдытӥсез	-11.1253
▁саюл	-11.1253
Умой	-11.1253
▁лист	-11.1253
тыршисьёсыз	-11.1253
▁малпаськисько	-11.1254
▁Наташаыс	-11.1254
▁виён	-11.1254
▁акция	-11.1254
▁погыртӥсь	-11.1254
▁кышноеныз	-11.1255
▁вузкаризы	-11.1255
▁уджӧ	-11.1255
Шудоесь	-11.1255
Иаковез	-11.1255
▁чеберъяськисьёс	-11.1255
бечеоссы	-11.1255
▁война	-11.1255
▁пызьна	-11.1256
▁сиис	-11.1256
▁тусьты	-11.1256
▁ӵошатскыны	-11.1256
▁усьылӥзы	-11.1256
▁изгурезез	-11.1256
ьга	-11.1257
▁буйгатыны	-11.1258
▁лыдӟыны	-11.1258
тыршыны	-11.1258
▁мерттӥ	-11.1258
▁кылёно	-11.1259
▁Атайды	-11.1259
▁субъектъяс	-11.1259
▁вамышъёсме	-11.1259
▁нимъёссы	-11.126
▁куашкатыны	-11.126
▁воштыны	-11.1261
▁виылэмъёс	-11.1261
▁валэктыны	-11.1261
▁киосты	-11.1262
▁кылзӥськытэк	-11.1262
▁юисьёс	-11.1263
▁карылӥд	-11.1264
▁рок	-11.1264
▁интыяськемын	-11.1264
▁шоканэз	-11.1264
▁азэм	-11.1265
▁вормыса	-11.1265
▁пуктылозы	-11.1265
▁йылыз	-11.1265
▁куштоз	-11.1265
▁пыдъёссы	-11.1265
▁бурмытыны	-11.1265
▁дурбасьтӥсе	-11.1266
▁курадӟытыса	-11.1266
▁азьветлӥсь	-11.1267
▁сяськаяськоз	-11.1267
▁комм	-11.1267
▁кӧш	-11.1268
▁зӥбетэз	-11.1268
▁Мозмытӥсед	-11.1268
▁лэсьтэмзэ	-11.1268
▁Елисавета	-11.1268
тера	-11.1268
▁нуыса	-11.1269
▁сюремъёсты	-11.1269
▁поттылӥзы	-11.1269
▁небыт	-11.1269
▁правило	-11.1269
▁мынӥсьёсты	-11.127
▁ожгарчиосыз	-11.127
▁урдскизы	-11.1271
▁Геф	-11.1271
▁малпалэ	-11.1271
▁сюан	-11.1273
▁сьӧлыкъёсмес	-11.1273
▁оградэ	-11.1273
▁лыктӥды	-11.1275
Ши	-11.1275
▁куараоссы	-11.1276
▁вапуме	-11.1276
шектэмесь	-11.1276
▁мук	-11.1277
▁косоз	-11.1277
▁быдӟымлыко	-11.1278
▁кулод	-11.1278
▁шокан	-11.1279
▁мынэмзэ	-11.1279
▁ортчыны	-11.1279
▁вуттыны	-11.128
▁мытшӧдъяс	-11.128
▁гурез	-11.128
▁Галилеяысь	-11.1281
Ошъёс	-11.1281
▁рыт	-11.1281
▁бӧръя	-11.1281
▁бодызэ	-11.1282
▁дуногес	-11.1282
▁вырӟизы	-11.1282
▁лыдзы	-11.1283
▁гражданалы	-11.1284
▁бырйыса	-11.1284
▁Валтасар	-11.1285
▁Айму	-11.1285
▁гужем	-11.1285
▁кырлы	-11.1285
▁саптазы	-11.1286
▁сылоз	-11.1286
▁люкетъёсыз	-11.1287
▁мертчиськ	-11.1287
▁чакласькод	-11.1288
торйӧн	-11.1288
▁тыршись	-11.1288
▁бугырскизы	-11.129
▁думылэ	-11.129
▁шормуӵъёсысь	-11.1291
кулонлэн	-11.1292
▁бурмӧдӧм	-11.1293
▁гумыен	-11.1294
▁вандэм	-11.1294
▁шеп	-11.1294
▁понэмын	-11.1294
▁инфекцияысь	-11.1294
▁данме	-11.1295
▁возьдаськыса	-11.1295
▁вуылӥзы	-11.1296
▁чаклалэ	-11.1297
▁найӧс	-11.1297
Найӧ	-11.1298
▁ватӥськемын	-11.1299
▁кариськизы	-11.13
▁ӝуштэм	-11.13
▁курыны	-11.13
▁инъетэз	-11.13
▁сьӧлыкай	-11.1302
▁пов	-11.1302
▁жоб	-11.1302
▁пазьгиськозы	-11.1303
▁жалялэ	-11.1304
▁сэзъяло	-11.1305
▁макеосын	-11.1306
▁коркаосты	-11.1307
▁сюлмысьтыз	-11.1307
▁ветлоно	-11.1308
▁атаймы	-11.1308
▁Олимпи	-11.1308
▁куим	-11.1309
▁катьтэммем	-11.1309
▁виылон	-11.131
▁Путин	-11.1311
▁оскиськонзы	-11.1312
▁оскиськисьёслы	-11.1313
▁ыстоз	-11.1313
▁мерттэмын	-11.1314
▁I	-11.1317
▁Горд	-11.1318
▁басьтоды	-11.1318
▁уйёсы	-11.1318
Лыкты	-11.1319
▁уськытӥз	-11.1319
▁мылкыдыз	-11.1319
▁сьӧлыкъёсы	-11.1319
▁Елам	-11.1319
▁ортчозы	-11.132
▁мылкыдзэс	-11.132
▁евнухъёс	-11.132
▁луэмзэс	-11.1321
▁дасьтӧм	-11.1321
▁уйпала	-11.1322
Ве	-11.1324
▁куасьмозы	-11.1325
▁мастерлы	-11.1325
▁шуисьёс	-11.1325
лыксэ	-11.1326
▁ортчизы	-11.1327
▁кивалтӥсьёсты	-11.1328
▁кузьымез	-11.1328
▁сюресъёстэс	-11.1328
▁эмъяло	-11.1328
▁жадем	-11.1328
▁веськӧдлысь	-11.133
▁кымын	-11.133
▁сюресэд	-11.1333
▁кизь	-11.1333
Калыкъёсты	-11.1335
▁лулды	-11.1336
▁Пукт	-11.1337
▁быгатоды	-11.1337
▁сётэлэ	-11.1338
▁юрнуӧдысьяслы	-11.1338
▁вандӥськымтэос	-11.1339
▁вӧсяськонэз	-11.1339
▁Амослэн	-11.134
▁виро	-11.134
▁келян	-11.134
▁муг	-11.1342
▁кортэз	-11.1342
▁пеляз	-11.1342
▁автомашинаяс	-11.1344
▁лулмы	-11.1345
▁котырес	-11.1345
вера	-11.1348
▁Аттьӧал	-11.1351
▁кутозы	-11.1352
▁вузкарон	-11.1353
нныд	-11.1354
▁йыг	-11.1355
▁Кир	-11.1358
▁сьӧлыказы	-11.1362
▁емышен	-11.1363
▁дорад	-11.1364
▁вералля	-11.1364
Ыж	-11.1365
▁пуктозы	-11.1365
▁люкетэд	-11.1366
▁ветлоз	-11.1366
▁ӝут	-11.1366
▁куанеръёсты	-11.1368
▁куштӥськыса	-11.1369
▁таласьёс	-11.1369
▁тодонэз	-11.1369
ымыныд	-11.1371
▁эскерыса	-11.1372
▁сюлэмды	-11.1376
▁пӧйшуръёсты	-11.1377
Вылтӥяськисьёс	-11.1378
▁данъяны	-11.1379
▁понӥзы	-11.138
▁тыллы	-11.1381
▁улӥсьтэм	-11.1382
▁чорыгъёс	-11.1383
▁Таиз	-11.1386
▁люканы	-11.1387
▁группаӧ	-11.1388
▁куашкан	-11.1388
Сӥонын	-11.1389
▁быдэстон	-11.1389
▁кужымзэс	-11.1389
▁кырӟасько	-11.1395
▁потод	-11.1395
чаклась	-11.1396
▁дыртэ	-11.1396
Иаковлэсь	-11.14
Узырлык	-11.1401
ӧз	-11.1403
▁Исааклэн	-11.1403
▁пене	-11.1404
▁сётонэз	-11.1406
▁малпазы	-11.1407
▁коркаезлэн	-11.1408
▁сюлмысь	-11.1408
сьтэм	-11.1409
▁ляльчиосызлы	-11.141
калыкъёслэсь	-11.1413
кайгуо	-11.1414
Кылыным	-11.1414
▁Ачим	-11.1417
куасьмись	-11.1418
▁возьманы	-11.1418
▁лоис	-11.1418
▁кеськыса	-11.142
вылэ	-11.1422
▁сётъясь	-11.1424
▁тэн	-11.1424
▁атайёсмылэн	-11.1425
▁вылтӥяськисьёс	-11.1425
▁амал	-11.1426
▁кужымед	-11.1429
▁возьмасьёслы	-11.1432
▁техн	-11.1433
▁синъёссэ	-11.1435
▁куртч	-11.1437
нодъян	-11.1437
▁одӥге	-11.1438
▁дуннеос	-11.1446
▁карыку	-11.1453
▁корис	-11.1454
вынъёсыд	-11.1457
▁чиданы	-11.1459
сеныз	-11.1461
▁виы	-11.1461
▁пазьгиз	-11.1463
▁сузэре	-11.1472
▁люкем	-11.1472
идол	-11.1474
▁султӥсьёс	-11.1475
▁кылён	-11.1477
синмыныд	-11.1481
ваньмызлы	-11.1482
▁дурысен	-11.1485
кайгуэз	-11.1487
▁вежысь	-11.1487
▁куараед	-11.1489
▁Исавлэсь	-11.1493
▁возёд	-11.1494
▁утиськонэз	-11.15
▁шуны	-11.1502
▁шӧдо	-11.1503
▁кутсконаз	-11.1503
▁юзма	-11.1503
вы	-11.1504
▁тодмало	-11.1504
▁вылтӥзы	-11.151
▁Инмармес	-11.1511
▁тыршон	-11.1512
▁интыме	-11.1512
▁эгыр	-11.1521
▁Оло	-11.1525
Визьлыкоос	-11.153
▁ань	-11.153
▁до	-11.153
▁вылӥысь	-11.1531
▁смокваос	-11.1541
▁каром	-11.1545
▁чеберъя	-11.1551
▁визьлыкоос	-11.1552
▁утчасьёслэн	-11.1553
скон	-11.1556
▁оскымтэ	-11.1558
▁вузкарисьёс	-11.156
▁сьӧлыксы	-11.1572
▁ӝожтӥськ	-11.1574
ыдэстэм	-11.1576
▁ӵошен	-11.1579
▁тылэз	-11.158
▁поттозы	-11.1581
▁кырӟаны	-11.1585
▁адӟонзы	-11.1589
▁кулыло	-11.1592
лыкед	-11.1595
эс	-11.1596
▁султӥ	-11.1599
адямилэн	-11.1603
▁адямиосын	-11.1606
▁вуыны	-11.1607
▁выльзэ	-11.1617
▁вуж	-11.1618
ала	-11.1619
Иерусалимлы	-11.1631
▁ветлӥд	-11.1641
оно	-11.1648
▁вераськемез	-11.1653
▁укылтэмлык	-11.1655
Чуж	-11.1657
▁Иоаннлы	-11.1658
▁муртэзлы	-11.166
лунъя	-11.1665
ыло	-11.167
▁ков	-11.168
▁воштӥськы	-11.1682
▁троссэ	-11.1689
▁кулыса	-11.1691
тур	-11.1692
▁куштӥськон	-11.1692
▁калыктэм	-11.1693
▁шедем	-11.1707
▁пыже	-11.1719
▁мыкырскиз	-11.1723
▁кыстӥськы	-11.1729
▁ёрты	-11.1731
▁кывкутӧм	-11.1731
▁сюрон	-11.1733
нызы	-11.1734
▁сьӧлыкме	-11.1741
▁Одӥг	-11.1741
от	-11.1752
▁бурдъёссэ	-11.1756
▁ужъёсыныд	-11.1763
▁вожпотонэзлэн	-11.1764
нодо	-11.1766
▁30	-11.1773
▁Моисейлэн	-11.1784
▁синмы	-11.1787
▁вузъёсы	-11.1793
▁келяз	-11.1794
▁кудӟ	-11.1806
Са	-11.1813
▁корказы	-11.1814
▁карысь	-11.1817
▁луисьёс	-11.1818
куректоно	-11.1819
Эш	-11.182
▁чашаос	-11.1824
кыласа	-11.1826
▁уджалӧ	-11.1827
Кур	-11.1829
▁тіянлы	-11.1834
▁урдскись	-11.1845
еры	-11.186
▁сузям	-11.1868
▁тушмонъёсме	-11.1876
▁куареты	-11.1882
▁тӧд	-11.189
▁кисьтӥськоз	-11.1893
▁Фа	-11.1908
▁арлы	-11.191
курадӟыса	-11.1919
▁погра	-11.1919
▁уллялоз	-11.1929
▁ужъёсызлэсь	-11.1932
Петр	-11.1933
рс	-11.1956
мунӧ	-11.1977
▁Галгал	-11.1984
▁ф	-11.1987
▁эшъёсы	-11.1992
тодэ	-11.201
▁берыктӥ	-11.2022
▁дырто	-11.2024
яськем	-11.2026
Сю	-11.2033
Уйи	-11.2041
кал	-11.2049
▁лушкам	-11.2055
вуос	-11.2058
▁сюзэ	-11.2058
вылон	-11.206
пе	-11.2068
▁чилекъя	-11.2069
▁ӧске	-11.2075
▁лулӟылӥсько	-11.2078
▁ёросъёсы	-11.2078
▁кылдыты	-11.2083
▁эрикены	-11.2104
▁ванд	-11.2123
▁ӧтч	-11.2123
▁четлык	-11.2124
▁отсала	-11.2128
▁люкаськона	-11.2128
▁васькы	-11.2131
▁куашкатӥ	-11.2133
▁куашкаты	-11.2138
▁сура	-11.2151
▁ӝуты	-11.2154
мтор	-11.2154
лӥсьёс	-11.2156
зэмлыклэн	-11.2157
Ар	-11.2158
▁пуктылэ	-11.2162
Курадӟон	-11.2163
▁Ме	-11.2174
▁кылъёсыныз	-11.2184
▁вудж	-11.2188
▁ӧ	-11.2191
▁валъёсты	-11.2196
шулдыръясько	-11.2201
онэн	-11.2203
тісны	-11.2212
▁сисьм	-11.2214
юан	-11.2224
музъемлэсь	-11.2228
▁тыронэ	-11.225
Пу	-11.2254
▁люкаськ	-11.2258
▁мир	-11.2258
бураса	-11.2258
▁котькудзэ	-11.2259
▁гожтӥ	-11.2263
▁уджалысьяслы	-11.2274
тытэк	-11.2276
▁излэсь	-11.2277
▁ушъясько	-11.2299
▁дышетӥсьёс	-11.2303
▁кельтӥсь	-11.2304
ъёсаз	-11.2318
ызьы	-11.2319
вл	-11.2323
Лу	-11.234
▁сузя	-11.2342
шектэмъёс	-11.2349
зьы	-11.236
гурезьысь	-11.2371
▁вел	-11.238
▁бурмыты	-11.2399
▁пусъёс	-11.2409
▁пуконэ	-11.2421
нов	-11.243
▁19	-11.2433
▁куалекъято	-11.2439
Израильлы	-11.2443
▁пыкылон	-11.245
онъёс	-11.2456
вывс	-11.2456
▁Александров	-11.2457
пилем	-11.2465
Кылчин	-11.2467
дч	-11.2469
▁ыш	-11.2472
йыркуред	-11.2474
мизы	-11.2474
тӧ	-11.2475
ЛОН	-11.2477
▁йыркуръяськон	-11.2482
▁юӧрт	-11.2494
нъёс	-11.2503
коркаоссэс	-11.2513
▁адӟемзэ	-11.2524
горь	-11.2529
Яратон	-11.2534
▁лэзи	-11.2546
Пилемъёс	-11.2551
▁пом	-11.2552
▁ворме	-11.2554
▁кыска	-11.2563
▁тіян	-11.2564
▁кайгу	-11.2564
эныд	-11.257
ёсыз	-11.2572
хи	-11.2573
▁синъёс	-11.2581
▁ӟечлыкен	-11.2584
▁юы	-11.2595
оды	-11.2608
льы	-11.261
▁вити	-11.2623
йысь	-11.2632
▁бинялт	-11.2637
тозям	-11.2646
▁ымдур	-11.2646
мун	-11.2649
▁утисько	-11.266
▁чиг	-11.267
▁юнматскоз	-11.2673
гор	-11.2677
▁ӝушт	-11.2681
ни	-11.2682
назы	-11.2695
ген	-11.2696
▁бо	-11.2708
ньӧл	-11.2715
ЕЙЛЭ	-11.2716
▁пачылмоз	-11.2725
ыкуз	-11.2726
▁стрӧит	-11.2727
▁кузёяськись	-11.2727
лымтэ	-11.2728
▁буйгатӥсь	-11.2738
чк	-11.2741
▁законэн	-11.2755
>9	-11.2764
Пель	-11.2766
ысьяслы	-11.2771
10	-11.2774
щ	-11.2784
▁донг	-11.2788
▁сикас	-11.2793
▁сюрестэ	-11.2794
▁кылзӥськи	-11.2826
▁апостол	-11.284
▁збыльмӧд	-11.2844
ллязы	-11.2853
▁кылзӥсько	-11.2856
▁виназэ	-11.2873
нымы	-11.2877
▁сӥнагога	-11.2877
▁гожтӥськ	-11.2887
Лулмугор	-11.2888
▁смоква	-11.2891
▁бурмон	-11.2897
▁зӥбы	-11.2906
▁ути	-11.2907
ге	-11.291
▁ко	-11.2921
▁поглян	-11.2926
шт	-11.2929
▁кӧтме	-11.2931
▁войско	-11.2934
▁сюрсъёс	-11.2937
ина	-11.294
▁курадӟем	-11.294
▁ньылон	-11.2941
▁пазьге	-11.2942
▁валтэм	-11.2943
▁йылъёс	-11.2944
аран	-11.2951
огены	-11.2958
▁пӧрмыт	-11.296
айл	-11.2973
▁пыремъёс	-11.2975
▁йылзэ	-11.2977
▁викышъя	-11.2981
▁жаляло	-11.2985
Уд	-11.2985
▁понон	-11.2988
▁лыктыку	-11.2992
▁дурбасьтӥсь	-11.2997
▁куштӥ	-11.3009
▁таво	-11.3014
мозь	-11.3015
дӥськут	-11.3022
▁ворсам	-11.3028
▁погыртэм	-11.3046
ӝоже	-11.3049
▁заводит	-11.3051
ясӧс	-11.3052
▁усьтӥ	-11.3063
▁дж	-11.3068
▁кымес	-11.3074
Ним	-11.3078
▁выже	-11.308
Вылтӥяськись	-11.3083
▁ожмаськонэ	-11.3085
пала	-11.3086
ветлӥсьёс	-11.3089
▁талун	-11.3091
курбонъёс	-11.3092
Лев	-11.3094
Котыр	-11.31
▁вераськонэ	-11.31
лысвуэн	-11.31
Я	-11.3102
▁синмын	-11.3109
▁талась	-11.311
▁сутэ	-11.311
тыршы	-11.3113
▁шонерлыке	-11.3115
▁иворты	-11.3117
▁вузкар	-11.3119
▁ӧдъя	-11.3124
палэн	-11.3126
ӝуа	-11.3133
▁чупа	-11.3135
Мадиан	-11.3135
▁дышетэм	-11.3137
ньылон	-11.3139
Асьмеос	-11.3143
гранатпу	-11.3143
котьку	-11.3143
Елиуй	-11.3145
▁вуыса	-11.3146
азьветлӥсьёссы	-11.3146
Аскалон	-11.315
йыркуръяськон	-11.315
Сизьым	-11.3152
ньылӥсь	-11.3152
I	-11.3154
уйёсы	-11.3154
Горд	-11.3154
нёжал	-11.3154
тёрнпу	-11.3155
саранча	-11.3155
Есевон	-11.3155
вала	-11.3156
Филипп	-11.3156
Содом	-11.3156
Сӥдон	-11.3156
кӧлан	-11.3157
гож	-11.3157
Священн	-11.3157
Вениамин	-11.3157
▁кылё	-11.3157
Манассия	-11.3157
викышъям	-11.3157
Ваал	-11.3157
куштӥськем	-11.3158
Левий	-11.3158
Ӟ	-11.3158
Даниил	-11.3158
Ирод	-11.3158
Иона	-11.3158
жаг	-11.3159
яратон	-11.3159
сильтӧл	-11.3159
вужер	-11.316
ушъялэ	-11.316
шарае	-11.316
святой	-11.316
▁иерей	-11.316
сиён	-11.3161
Елам	-11.3162
Мария	-11.3162
▁луэмдэ	-11.3162
▁дэра	-11.3163
матысь	-11.3164
асьмеос	-11.3164
адӟон	-11.3165
сӧриськем	-11.3165
уйпал	-11.3167
об	-11.3168
тодыны	-11.317
шумпотэ	-11.3171
▁погыртӥ	-11.3171
йӧно	-11.3171
югытэз	-11.3173
▁мерттэ	-11.3176
слав	-11.3176
Инмын	-11.3176
Челядь	-11.3177
кылынызы	-11.3178
сэзь	-11.3178
улыны	-11.3178
Му	-11.3182
▁пыргыто	-11.3182
улӟы	-11.3183
таркамын	-11.3183
синъёсыд	-11.3183
мынӥсь	-11.3183
▁лэсьтэме	-11.3185
▁йыбыртто	-11.319
пырысь	-11.319
верам	-11.3192
гур	-11.3192
▁воштӥз	-11.3196
▁пачылмиз	-11.3197
ваё	-11.3198
быд	-11.3198
▁берытскем	-11.3198
▁пож	-11.32
кымын	-11.32
▁урдскоз	-11.3201
ньяс	-11.3203
кайгыр	-11.3203
▁юнмалоз	-11.3204
▁куштӥськиз	-11.3206
▁Ахаз	-11.3206
кый	-11.3207
▁сиськы	-11.3208
▁йыркуръяськы	-11.321
▁тусбуй	-11.321
▁васькиз	-11.3211
▁кутскисько	-11.3211
Кырӟа	-11.3212
▁черкъёс	-11.3212
▁лякиськиз	-11.3213
▁Ба	-11.3214
▁зуркалоз	-11.3215
▁куасьмы	-11.3215
▁уйвӧтэ	-11.3215
тодад	-11.3217
Суббота	-11.3217
шуиз	-11.3217
▁тырмем	-11.3218
▁Мозмытӥсе	-11.3219
▁пасьтала	-11.3222
▁серекъяло	-11.3223
сюлмыз	-11.3223
▁кивалтӥсе	-11.3224
▁юрттоз	-11.3224
▁усьтӥськем	-11.3224
афа	-11.3224
▁сииз	-11.3226
Сюр	-11.3227
▁ордйысьӧм	-11.3227
▁йылоз	-11.3228
▁пограз	-11.3228
▁усьыло	-11.3232
▁виылоз	-11.3235
▁Хе	-11.3238
▁каргам	-11.3238
▁сермет	-11.3238
апчи	-11.3239
▁кежл	-11.324
оршок	-11.324
▁ӝикатэ	-11.3241
▁пыкиськ	-11.3241
▁Ави	-11.3241
ышкись	-11.3241
▁лыдпас	-11.3241
▁куйлӧд	-11.3241
▁сэрпалтӥ	-11.3242
рво	-11.3242
▁кре	-11.3242
сьӧмъяс	-11.3243
олӧмал	-11.3243
Куашка	-11.3243
Кӧт	-11.3243
▁кафедра	-11.3243
Куспа	-11.3243
X	-11.3243
Кулӧмдін	-11.3243
Юрттэт	-11.3243
▁Иерихон	-11.3243
▁Поттӥсь	-11.3243
▁Правлениеӧ	-11.3243
▁ачыс	-11.3243
▁вакцинируйтчӧм	-11.3243
▁власть	-11.3243
▁йитчӧм	-11.3243
▁кельшыны	-11.3243
▁компетенция	-11.3243
▁регыд	-11.3243
▁режим	-11.3243
▁салфеткаяс	-11.3243
▁турттыса	-11.3243
▁чышкӧдъяс	-11.3243
▁шойчч	-11.3243
▁ӝикыт	-11.3243
▁ӟырдыт	-11.3243
Дышетон	-11.3243
Овмӧс	-11.3243
▁Ариох	-11.3243
▁Васильев	-11.3243
▁Иехония	-11.3243
▁Рагуил	-11.3243
▁библиотека	-11.3243
▁партия	-11.3243
▁перъян	-11.3243
▁пиньёссы	-11.3243
▁пушнер	-11.3243
▁радейт	-11.3243
▁стекл	-11.3243
▁уджмогъяс	-11.3243
▁ӵыпет	-11.3243
▁визнан	-11.3243
▁кирос	-11.3243
▁кульчо	-11.3243
▁преподаватель	-11.3243
▁тусбуез	-11.3243
▁эллинъёс	-11.3243
▁юбилей	-11.3243
Стефан	-11.3243
▁Фамна	-11.3243
▁тэрытске	-11.3243
Ӝыт	-11.3243
▁2.0	-11.3243
▁паськалӧм	-11.3243
▁улича	-11.3243
Выжы	-11.3243
▁етӥн	-11.3243
▁куронэзъя	-11.3243
▁техникум	-11.3243
▁герӟаськемын	-11.3243
▁тодытӥськомы	-11.3243
▁укшасесь	-11.3243
▁Фарсисэ	-11.3243
▁лыддьӧг	-11.3243
▁тубе	-11.3243
публи	-11.3243
▁бальзам	-11.3243
▁сборнӧй	-11.3243
▁кылльыку	-11.3243
▁аминь	-11.3244
▁люкиськиз	-11.3244
▁умоез	-11.3244
▁ӵошкато	-11.3244
▁Едем	-11.3244
▁люкиськон	-11.3244
▁вунэтӥськы	-11.3244
Ньыль	-11.3244
▁Сётӥсь	-11.3244
▁Севна	-11.3244
▁хана	-11.3244
▁виччысь	-11.3244
▁кыстӥськиз	-11.3244
▁шобырскемын	-11.3244
▁ядэз	-11.3244
▁сэрегпум	-11.3244
▁вуджӧдӧм	-11.3244
▁берпум	-11.3244
▁писыръя	-11.3244
▁кожытӥзы	-11.3244
▁люкиське	-11.3244
▁письмӧяс	-11.3244
▁верст	-11.3244
▁чинтӧм	-11.3244
▁кизиськем	-11.3244
▁сузмытэмын	-11.3244
▁чигналозы	-11.3244
▁ковмас	-11.3245
Учкелэ	-11.3245
▁куалектэмын	-11.3245
▁мынтӧмъяс	-11.3245
▁ушъяське	-11.3245
▁лолал	-11.3245
▁кольӧм	-11.3245
▁Цивеон	-11.3246
▁арфа	-11.3246
▁аляк	-11.3246
▁лесопункт	-11.3246
▁вӧлмоз	-11.3246
▁Петровна	-11.3246
▁участвуйтысьяс	-11.3246
▁витиськомы	-11.3246
▁малпаське	-11.3246
▁пыргытӥз	-11.3246
лулзэ	-11.3247
▁военнӧй	-11.3247
▁ужпум	-11.3247
▁сииськоды	-11.3247
▁Андреев	-11.3248
▁кенешазы	-11.3248
▁водзджык	-11.3248
ымынызы	-11.3248
▁кидысэд	-11.3248
▁куашказ	-11.3248
▁зуркатӥз	-11.3248
Ду	-11.3249
▁рез	-11.3249
▁сётылӥд	-11.3249
чӧй	-11.3249
куа	-11.325
▁пӧв	-11.325
▁бырытозь	-11.325
жалянэныз	-11.325
етъяс	-11.325
▁орден	-11.325
▁киултӥз	-11.325
▁сапталозы	-11.325
▁будэтӥд	-11.325
▁уджтасъяс	-11.325
Каньыллык	-11.325
▁дорйысь	-11.3251
▁ыджыдджык	-11.3251
▁думылыса	-11.3251
▁шог	-11.3251
▁ӝикато	-11.3251
сикер	-11.3251
Ханан	-11.3252
▁тышкаськыса	-11.3252
▁депутатъяс	-11.3252
▁шутэтске	-11.3252
▁канжаське	-11.3252
▁оскиськымонэсь	-11.3252
ӵыж	-11.3252
▁курдалэ	-11.3253
▁эскӧд	-11.3253
▁пыкиськыса	-11.3253
▁чабкы	-11.3253
кетъяс	-11.3253
▁саптамын	-11.3254
▁сюдыны	-11.3254
▁шедьтод	-11.3254
▁культоос	-11.3254
▁тырмытэм	-11.3254
▁COV	-11.3255
▁эриктэман	-11.3255
▁вӧчны	-11.3255
▁Цоан	-11.3255
▁страусъёс	-11.3255
▁транспорт	-11.3255
▁Пылатӥсь	-11.3255
▁юрттэменыз	-11.3255
▁2023	-11.3255
▁зонка	-11.3255
▁матысез	-11.3255
▁ньылэмын	-11.3255
▁таркало	-11.3255
▁бурмӧдан	-11.3256
▁данлыке	-11.3256
▁палэнтэмын	-11.3256
▁уськытӥсь	-11.3256
▁йыло	-11.3257
▁пыриськы	-11.3257
▁быдэстэ	-11.3257
▁ожгарчиосыд	-11.3258
тасьті	-11.3258
▁кыӵес	-11.3258
▁выдыса	-11.3258
▁жугыны	-11.3258
▁шумпотто	-11.3258
▁петкӧдлысь	-11.3258
▁тӧлбер	-11.3259
▁йырйыса	-11.3259
▁визьмыныд	-11.326
▁кудӟемын	-11.326
чакласа	-11.326
▁люкалэ	-11.326
▁ивортылэ	-11.326
▁сяменыз	-11.326
▁гожтоз	-11.3261
▁вазиськылӥзы	-11.3261
▁Вефиль	-11.3261
▁тыриз	-11.3261
▁кышкытэсь	-11.3262
▁республикаясы	-11.3262
▁йыбырттӥзы	-11.3262
оператив	-11.3262
▁Архиереймы	-11.3262
▁вывт	-11.3263
▁законэзъя	-11.3263
▁чидалэ	-11.3263
▁инмаръёсыд	-11.3263
▁вылӥынгес	-11.3264
▁уськытэмын	-11.3264
тыршем	-11.3264
▁куштӥськозы	-11.3264
▁ӧтем	-11.3264
▁данъямын	-11.3265
▁инъетъёсыз	-11.3265
▁Ах	-11.3265
Ульчаос	-11.3265
тозяд	-11.3265
▁зона	-11.3265
▁тубизы	-11.3265
▁лым	-11.3265
▁сантэмалозы	-11.3266
▁Амон	-11.3266
▁юись	-11.3266
сантэман	-11.3266
Сюлмынызы	-11.3266
Кышноос	-11.3267
▁дӥсянзэ	-11.3268
жмас	-11.3268
▁кутскид	-11.3268
▁быдэсъялэ	-11.3269
▁сюлмаськыны	-11.3269
▁шаере	-11.3269
леке	-11.327
▁люкаськозы	-11.327
▁бурпалам	-11.327
▁валатэк	-11.327
▁возьмаськон	-11.3271
▁Мих	-11.3271
▁сюлмаськонэз	-11.3271
▁возьматскиз	-11.3271
ордскем	-11.3271
▁югытэныз	-11.3271
▁вӧлъяса	-11.3272
Нылмурт	-11.3272
▁дауре	-11.3272
▁ватӥськод	-11.3272
▁куалекъялэ	-11.3272
▁ӝутыны	-11.3272
▁ветл	-11.3273
▁сюлэмад	-11.3273
▁ставс	-11.3274
Утиськон	-11.3274
▁нуныосыз	-11.3274
▁Дарий	-11.3274
▁Екклесиаст	-11.3274
▁Оливема	-11.3274
▁херувимъёс	-11.3274
▁ӵуказе	-11.3275
▁визяса	-11.3275
▁утид	-11.3275
▁валамон	-11.3275
▁лэзид	-11.3276
▁шыпыт	-11.3276
▁удалтэм	-11.3276
▁тодытозы	-11.3276
▁дуноесь	-11.3276
▁Я	-11.3276
▁лыктэмъёс	-11.3276
▁Вас	-11.3277
▁уродэсь	-11.3277
▁куашкатӥд	-11.3277
▁вылӥязы	-11.3277
▁быгатӥзы	-11.3277
▁гудыри	-11.3278
▁бурпала	-11.3278
▁вуттэм	-11.3279
▁каремъёс	-11.3279
▁шедьтытэк	-11.3279
▁йыркуръяськыса	-11.328
▁выжиз	-11.328
▁сузэрез	-11.3281
▁пыдсы	-11.3282
▁басьтэлэ	-11.3282
▁кынартэм	-11.3283
▁ульчаысен	-11.3283
▁октэм	-11.3284
▁Салафиильлэн	-11.3284
▁бусыяз	-11.3285
▁шугадӟонэ	-11.3285
▁вогъяськыса	-11.3285
▁ляльчидэ	-11.3285
▁храмед	-11.3285
▁яратэлэ	-11.3285
▁палэнын	-11.3285
▁Фили	-11.3285
▁утиськыса	-11.3285
▁дасесь	-11.3286
▁сылал	-11.3286
▁ожгарчиосты	-11.3286
▁вайылӥзы	-11.3286
▁Кужмоез	-11.3287
▁мертаса	-11.3287
▁вайёсты	-11.3287
▁гожтэмез	-11.3287
▁капчиен	-11.3287
▁котькудды	-11.3288
▁лэзиськоз	-11.3288
▁киосыныз	-11.3288
▁ялы	-11.3288
ялан	-11.3288
▁шонерлыкоесь	-11.3289
▁сиёды	-11.3289
▁куштӥськемзы	-11.329
▁кытшын	-11.329
▁луытозь	-11.329
▁паськӧдӧ	-11.3291
▁мугорыд	-11.3291
длыны	-11.3292
▁усьтӥськы	-11.3293
▁серекъяса	-11.3293
▁сутӥзы	-11.3294
▁ошыл	-11.3294
▁жаль	-11.3296
▁быдтӥд	-11.3298
▁вылас	-11.3299
▁усиды	-11.3299
▁шумпотӥзы	-11.3299
▁чӧлто	-11.3299
▁люкъёслы	-11.3299
▁кыстӥськись	-11.33
▁кельтӥд	-11.33
▁сюма	-11.33
▁погразы	-11.3301
Ол	-11.3301
▁вуытэк	-11.3301
▁нылпиостэ	-11.3301
▁ветеранъяс	-11.3302
▁музъемлы	-11.3302
▁эшъёсыз	-11.3302
▁Тит	-11.3302
▁ошмесэз	-11.3303
▁кыллёзы	-11.3303
▁кыскиз	-11.3303
адямиез	-11.3304
▁виылозы	-11.3306
▁вирыз	-11.3307
▁сётӥськоз	-11.3308
▁адӟиськомы	-11.3308
▁люкаське	-11.3309
▁саптаськемын	-11.331
▁быдэстӥ	-11.331
▁кариськем	-11.331
▁ті	-11.3311
▁ивортыло	-11.3311
▁пазьгоз	-11.3311
▁сётылӥзы	-11.3311
▁местаяс	-11.3312
фар	-11.3312
▁инвестицияяс	-11.3313
▁садэ	-11.3313
▁вазиськозы	-11.3314
▁лег	-11.3314
Бен	-11.3315
▁Лыктӥ	-11.3315
▁Неффалим	-11.3315
▁кораса	-11.3315
▁Атаед	-11.3316
▁чилясь	-11.3316
иналы	-11.3316
▁ыргонэз	-11.3316
▁выжыоссэ	-11.3316
тӥськон	-11.3318
ьӧбысьяслы	-11.3318
▁ӵошат	-11.3319
▁Давидэз	-11.3319
▁музъемысьтызы	-11.3321
▁интыысен	-11.3321
▁вуи	-11.3322
▁тушмонъёсмы	-11.3322
▁пӧрмытӥзы	-11.3323
▁бодыен	-11.3325
▁атаедлэсь	-11.3325
▁куашкатӥзы	-11.3327
▁ортчытъя	-11.3328
▁вырисьёс	-11.333
▁ӝутскыса	-11.333
Шуо	-11.3331
▁сьӧлыкъёсме	-11.3332
▁лекесь	-11.3333
▁вакытаз	-11.3333
▁сюресъёссы	-11.3333
▁выжыеныз	-11.3333
▁утизы	-11.3334
▁Сизьым	-11.3336
Сьӧд	-11.3337
▁ньылӥсь	-11.3337
▁вӧтъёс	-11.3338
▁сӧриськем	-11.3338
▁эксэйёссэс	-11.3338
▁кӧтӝож	-11.3342
▁мугорзы	-11.3342
▁бӧ	-11.3342
▁улэммы	-11.3342
▁чаклан	-11.3344
▁кылды	-11.3344
▁пыриськись	-11.3344
▁пунктъяс	-11.3345
▁кылӥськозы	-11.3345
▁сетас	-11.3345
▁йӧно	-11.3347
▁вордӥськон	-11.3348
▁радэн	-11.3348
▁куризы	-11.3349
▁вына	-11.3349
▁берытскизы	-11.3349
Сӥонысь	-11.3354
▁бус	-11.3354
тӥське	-11.3355
юрид	-11.3355
▁пиньёссэ	-11.3356
▁Рувим	-11.3356
▁узырлыксы	-11.3356
▁шаераз	-11.3357
▁лэзиськы	-11.3357
▁тадзи	-11.3357
▁утёд	-11.3358
▁адӟонэд	-11.3359
150	-11.336
▁уродгес	-11.336
тӥр	-11.336
▁синмыным	-11.3361
▁понӥсь	-11.3361
▁городъёсысь	-11.3362
▁кисьтыса	-11.3362
▁Визь	-11.3363
▁кыллёд	-11.3364
▁понозы	-11.3364
▁Корка	-11.3364
▁синмыныз	-11.3365
Лулме	-11.3366
▁бадь	-11.3366
▁уллёзы	-11.3366
Код	-11.3368
Тэ	-11.3369
▁яратонэд	-11.3369
▁дӥсясько	-11.337
▁утчай	-11.337
▁виылӥсьёс	-11.3372
▁мынэлэ	-11.3372
▁карисьёсты	-11.3373
векчи	-11.3373
▁сылозы	-11.3374
▁ушъяськисьёс	-11.3376
▁станция	-11.3376
▁интыосысь	-11.3376
▁утиське	-11.3377
▁интыясько	-11.3378
▁шуръёсты	-11.3378
▁ымынызы	-11.3379
Чеберъяськись	-11.3379
▁вуттозы	-11.338
▁ассьыны	-11.3381
▁муртъёсын	-11.3382
▁кедырпулэсь	-11.3384
Бар	-11.3385
▁емышсэс	-11.3386
▁сюлэмыд	-11.3387
тушмонлэн	-11.3387
▁уйвӧтэз	-11.3388
▁юртто	-11.3388
синъёсыныз	-11.339
▁лякиськем	-11.3393
аськыса	-11.3393
▁вераломы	-11.3397
▁лябӟы	-11.3398
▁сюсь	-11.3398
▁осконзы	-11.3398
▁зыраськ	-11.3402
иллэн	-11.3403
▁сётонэд	-11.3403
▁ымыныз	-11.3405
▁мылкыдзы	-11.3406
▁йитӧдъяс	-11.3406
▁курадӟисько	-11.3407
▁дасяд	-11.3409
▁лом	-11.3409
▁кенешез	-11.341
▁кулоно	-11.341
▁басьтод	-11.3411
еннӧй	-11.3412
▁нуид	-11.3413
▁сёрнитіс	-11.3413
▁кылдытӥсько	-11.3414
▁пелям	-11.3415
▁быдэсмон	-11.3416
▁ужъёслы	-11.3417
▁ӟырдам	-11.3421
▁филиал	-11.3422
▁малпасьёслы	-11.3425
▁Моавез	-11.3426
косонъёсты	-11.3426
▁сюрозы	-11.3429
▁тарканы	-11.343
▁сюлэммы	-11.3431
▁налысь	-11.3432
▁интымы	-11.3435
▁палысьтыз	-11.3437
▁мышкыны	-11.344
кудкемозь	-11.344
▁вазиськылӥ	-11.3442
▁лэзизы	-11.3442
▁котыртӧм	-11.3443
тал	-11.3445
▁Гад	-11.3447
Ната	-11.3451
▁адӟиськоды	-11.3455
▁лэсьтӥды	-11.3456
▁фараонлы	-11.3457
▁быдтӥзы	-11.3457
▁ченгешонъёс	-11.3459
▁Яке	-11.3461
ӝутскись	-11.3465
▁сюресэ	-11.3465
Котькин	-11.3468
▁компанияясл	-11.3468
▁люклы	-11.3468
▁ск	-11.3468
▁пазьгиськиз	-11.3471
▁Куд	-11.3472
▁тырыны	-11.3474
▁мл	-11.3477
▁ымысьтызы	-11.3479
▁нылъёссы	-11.3481
▁сульдэръёслы	-11.3482
▁вужереныз	-11.3482
уродлэсь	-11.3484
?..	-11.3484
▁пырозы	-11.3487
Ужась	-11.3489
▁гуысь	-11.3489
ёрмон	-11.3492
▁ыстэмын	-11.3494
▁Сыктывкарын	-11.3496
▁пылатон	-11.3496
▁зарниез	-11.3498
чыл	-11.35
▁нимасько	-11.35
▁ассьы	-11.3504
▁кылынызы	-11.3507
▁ивортӥсьёс	-11.351
▁вунэтӥд	-11.3514
▁поттод	-11.3514
▁сантэмаса	-11.3515
▁ивортылӥ	-11.3519
ӧль	-11.3519
шекъёссэ	-11.352
▁жаляны	-11.3524
▁кортӵога	-11.3525
сьӧлыкъёс	-11.3526
▁вӧлъям	-11.3526
▁юид	-11.3527
▁келялля	-11.3527
▁возьдасько	-11.3528
Атайёс	-11.3529
▁возьытлык	-11.3529
лав	-11.353
▁ужлы	-11.3531
▁возисьлэсь	-11.3533
▁погыртэмъёс	-11.3535
▁сюрлы	-11.3539
тья	-11.3545
калыкъёслы	-11.3547
▁данлыкеныз	-11.3548
▁вазиськыку	-11.3548
ымыз	-11.3549
юо	-11.3552
▁ужъёсмы	-11.3553
▁шонерлыкед	-11.3553
▁лэсьтозы	-11.3555
Иосиялэн	-11.3562
▁сюдӥ	-11.3563
куанеръёс	-11.3565
▁нылпиослэсь	-11.3566
▁городъёсаз	-11.3568
эксэйёс	-11.3571
ӧрекч	-11.3572
▁сюлэмез	-11.3574
▁тонна	-11.3578
▁кынм	-11.3579
дми	-11.3579
▁кылъёссэс	-11.358
ымзы	-11.3586
▁нылызлэсь	-11.3586
▁Таӵе	-11.3587
▁нуналзы	-11.3587
▁берга	-11.3587
▁Сӥонысь	-11.359
▁улэменыз	-11.3591
▁кер	-11.3593
▁законъёс	-11.3599
кӧ	-11.3606
▁бурдъёс	-11.3613
▁быдтод	-11.3616
▁музъемам	-11.3617
Тонэн	-11.3623
▁кыльыса	-11.3625
▁будо	-11.3628
▁серекъянлы	-11.3646
эмез	-11.3647
▁де	-11.3648
Пи	-11.3649
▁усемъёс	-11.3653
▁э	-11.3657
▁юасько	-11.366
▁карисьёслэсь	-11.366
▁ӵыжатӥсь	-11.3661
кыт	-11.3662
идолъёссы	-11.3675
▁Ир	-11.3675
▁зуркато	-11.3678
▁шапыке	-11.3682
▁медб	-11.3686
▁суйбыгыт	-11.3687
50	-11.3688
:«	-11.3695
▁куараеныз	-11.3695
▁лыктоно	-11.3696
▁ги	-11.3696
▁вуэмез	-11.3697
▁косонэз	-11.3699
▁сантэмасько	-11.37
▁мыд	-11.371
▁тэрытскисьтэм	-11.3713
▁ыбыло	-11.3716
▁кӧсйӧм	-11.3716
▁пельтӥсь	-11.3717
юкет	-11.3721
▁утёзы	-11.3724
▁быгатӥсьёс	-11.3727
▁Вала	-11.3732
Борддор	-11.3732
Атайзэ	-11.3736
▁дасясько	-11.3737
▁сюлмо	-11.3738
сюлмаськисьтэм	-11.3741
вератэк	-11.3756
▁коркад	-11.3757
▁тӥрлыкъёс	-11.3759
▁мукетызлы	-11.3761
рлы	-11.3763
▁би	-11.3766
▁помал	-11.3768
▁юкӧнъяс	-11.3769
▁дӥсяськы	-11.3783
▁иворъёс	-11.3796
▁вӧлдӥз	-11.3797
▁администрация	-11.3802
▁юан	-11.381
кӧты	-11.381
▁братэ	-11.3812
иоссэ	-11.3813
▁синвуэ	-11.3816
Инмармес	-11.3818
▁макеослэн	-11.3823
▁Фи	-11.3826
ыдысь	-11.3829
▁гуртаз	-11.3834
▁палэнскылы	-11.3841
▁киулысьты	-11.3847
▁республикалы	-11.3851
▁шапыкъёс	-11.3854
▁васькоз	-11.3856
▁курс	-11.3856
▁сувт	-11.3858
▁ве	-11.3859
▁ал	-11.3861
▁дасяське	-11.3886
▁кӧйын	-11.3888
▁сӧр	-11.3894
Калыкед	-11.3894
▁пиосын	-11.3895
ийлэн	-11.3901
▁тубыса	-11.3905
▁матад	-11.3907
уджы	-11.3916
▁лулыд	-11.3918
▁шортӥ	-11.3919
▁кожыса	-11.392
ымтэзы	-11.392
утсконысеныз	-11.392
▁Мал	-11.3921
▁сюйлы	-11.3924
▁музъемдэ	-11.3926
▁вайыкуз	-11.3927
▁примиті	-11.3931
▁Кутӥсьлэн	-11.3932
▁ня	-11.3948
▁витиз	-11.3952
▁Инмармылы	-11.3953
ъёсмес	-11.3955
▁гуосы	-11.3964
▁мисько	-11.3965
▁кылзӥськем	-11.3965
▁ёросъёс	-11.3968
▁най	-11.3969
шекъёстэ	-11.3971
▁данэн	-11.3982
▁нимаськись	-11.3983
▁воис	-11.3987
руд	-11.399
▁бурмыт	-11.3996
▁нюртэ	-11.4003
▁пиосы	-11.4006
▁кышканы	-11.4006
▁каремзэ	-11.4008
▁огзэ	-11.4009
Пилем	-11.4026
▁мыныку	-11.4028
▁эксэезлэсь	-11.4029
▁кыкез	-11.4034
▁мертэт	-11.4036
артэ	-11.4036
Сюлэмме	-11.4036
▁нельки	-11.4038
Уйвӧт	-11.4038
▁лулмугорын	-11.4045
лана	-11.4049
▁Сӥхеме	-11.4052
гар	-11.4053
шым	-11.4062
▁пумитъяськы	-11.4069
▁Ан	-11.4071
▁кылод	-11.4081
палкышноос	-11.4083
▁верасьёс	-11.4084
Куанеръёс	-11.4084
мыныз	-11.4084
ёсыныз	-11.409
шугадӟонъёс	-11.4101
▁бырем	-11.4102
чис	-11.4106
▁дырез	-11.4113
▁Израильын	-11.4126
▁ӝутон	-11.4135
▁кылӥськод	-11.4153
малпам	-11.4164
▁пӧяськ	-11.4166
▁шобретъёс	-11.4169
▁вӧза	-11.4169
▁карга	-11.4171
▁уджалӧм	-11.4173
▁кӧла	-11.4194
▁сутӥсь	-11.4197
Ксен	-11.4199
▁ортчыты	-11.42
удӟем	-11.4208
осму	-11.4214
▁улонды	-11.4216
кужмоос	-11.4217
▁уробоосын	-11.4218
кс	-11.4231
▁ужезлэсь	-11.4233
▁вотэс	-11.4246
▁шуысал	-11.4255
▁молотэ	-11.4257
тырымон	-11.4277
Пыж	-11.4288
▁пань	-11.4289
выжыед	-11.43
▁палъёс	-11.4301
рас	-11.431
ыкузы	-11.4315
эдлэн	-11.4325
▁интыяськем	-11.433
▁басьтӥсе	-11.4331
малпа	-11.4333
ъясыс	-11.4337
▁эксэйёслы	-11.4341
▁ужын	-11.4351
▁сьӧлыксэ	-11.4359
▁палаше	-11.4362
▁верамзы	-11.4366
▁быдтыса	-11.437
тов	-11.4371
▁кул	-11.4371
▁Ф	-11.4378
пророкъёс	-11.4379
Тылы	-11.4386
▁вогъяськ	-11.4393
ёсыд	-11.4393
чан	-11.4394
▁верблюдъёс	-11.4398
▁инмаръёссэ	-11.44
▁вен	-11.4406
▁пиосызлы	-11.4407
▁бакчазэ	-11.4418
▁вазиськись	-11.4419
▁мыльккиськы	-11.442
▁номыри	-11.4428
▁визьлыклэн	-11.4433
Капка	-11.4442
▁уси	-11.4449
онэ	-11.4454
эзлэсь	-11.4457
▁нылъёсы	-11.4462
▁шудэ	-11.4465
веран	-11.4465
▁бызем	-11.4467
вер	-11.4469
таркась	-11.4472
емъёс	-11.4473
▁пӧрмытӥ	-11.4474
▁сантэмась	-11.4482
ство	-11.4484
▁Ассирияе	-11.4485
▁ов	-11.4506
▁дугдыты	-11.4509
▁святыня	-11.4511
Дон	-11.4514
ултӥямъёс	-11.4517
▁асланы	-11.4521
ъёсызъя	-11.4525
дж	-11.4526
▁верасал	-11.4534
▁кей	-11.4538
▁эскеро	-11.4545
▁лыдӟы	-11.4545
Чида	-11.4549
▁пуктылэм	-11.455
Кы	-11.4551
▁келям	-11.4555
тъя	-11.4557
тас	-11.4568
▁суйбыгытэ	-11.4576
▁борддоръёссэ	-11.4591
▁тодэме	-11.4592
тӥсьёс	-11.4595
▁шыр	-11.4601
ӧя	-11.4606
▁шобыр	-11.4606
еч	-11.4607
▁Лы	-11.4615
▁кырӟанъёс	-11.4617
нэд	-11.4621
▁ляк	-11.4632
ъёссылы	-11.4632
▁йылэто	-11.4636
▁отсал	-11.4641
▁вуын	-11.4653
▁туп	-11.4655
пия	-11.4667
▁берытски	-11.4681
▁лоа	-11.4683
▁ли	-11.4685
▁сӥзисько	-11.4686
▁люкетме	-11.4693
▁кыллы	-11.4693
▁виись	-11.4693
ӧдасны	-11.4695
▁ам	-11.4699
▁Козлова	-11.4703
сьӧлыкъёстэс	-11.4707
▁кыз	-11.4707
сьӧлыкъёссэ	-11.471
▁сётонъёс	-11.4712
▁лушкаськись	-11.4724
▁сямыз	-11.4724
▁Македоныс	-11.4725
убо	-11.4733
▁юалоз	-11.4757
▁ялӥ	-11.4762
Ад	-11.4768
▁мечсэ	-11.4769
пеймытын	-11.4772
▁мертэтэ	-11.4775
ытозяз	-11.4787
▁висе	-11.4795
▁няньдэ	-11.4799
▁мынод	-11.48
синъёсы	-11.4807
паз	-11.4812
каос	-11.4821
▁сьӧлыкамы	-11.4824
▁ӟечлы	-11.4826
лэм	-11.4829
оді	-11.4834
▁сётыку	-11.4837
▁пыдзэ	-11.4859
▁бурмӧд	-11.486
▁кылъёслы	-11.4861
▁талы	-11.4876
▁сьӧлыкам	-11.4877
▁жильыос	-11.4881
Ваньзылэн	-11.4896
▁эскери	-11.491
▁лёг	-11.4914
▁кариськи	-11.4916
▁куалекъясь	-11.4923
▁сюрестӥз	-11.4929
▁бускель	-11.4939
мам	-11.4942
ръя	-11.4948
съя	-11.4948
таламын	-11.4958
▁велӧдч	-11.496
▁кисьтоз	-11.4982
▁кесяськы	-11.499
▁каб	-11.4992
▁Вир	-11.4993
▁итым	-11.4993
▁нюр	-11.4995
сульдэръёсты	-11.5014
▁усьтӥсько	-11.5021
бор	-11.5025
▁ӧсъёс	-11.5025
▁ёртэ	-11.5028
▁няньме	-11.503
▁луонзэ	-11.5033
мад	-11.5033
Визьзэ	-11.5043
лам	-11.5043
▁Иудеяе	-11.5044
▁ыжпиос	-11.5049
Кошк	-11.5053
анлэн	-11.5059
алекъяськон	-11.5074
▁вӧлдӥ	-11.5088
7	-11.51
оос	-11.5101
▁йырыныз	-11.5121
▁зарезьлы	-11.5127
▁герӟа	-11.513
▁Ваньзы	-11.513
▁ӟырдатэ	-11.5141
тозязы	-11.5145
▁тышкаськ	-11.5149
▁узыръёс	-11.5152
▁городъёссэ	-11.5156
▁вӧлъя	-11.5157
пуос	-11.5163
ясь	-11.5166
▁лӥят	-11.5172
▁пашм	-11.5177
миле	-11.518
▁вошъяськ	-11.5181
кисьтэм	-11.5201
▁кылаз	-11.5206
▁паймо	-11.522
тушмонъёсылэн	-11.5231
▁ӵыжатӥ	-11.5231
веранэ	-11.5232
▁мыскыл	-11.5237
коркаос	-11.5239
Таво	-11.5241
Пыра	-11.5242
▁шуккыса	-11.5245
кузёйыръёс	-11.5246
▁пӧрмыты	-11.5249
▁отс	-11.5252
▁матысьёс	-11.5255
▁тодысал	-11.526
▁ивортон	-11.5261
▁мусо	-11.5261
Бӧрд	-11.5264
▁шибодыос	-11.5266
▁йыбыртты	-11.5268
▁вузкарись	-11.5275
хор	-11.5275
▁усьтӥськон	-11.5284
тушмонъёссэ	-11.5291
нда	-11.5297
▁басьтӥсько	-11.53
тка	-11.5305
зись	-11.5319
▁Инмарелэсь	-11.5321
▁дауръёсы	-11.5336
Лул	-11.5354
ьёс	-11.5357
▁быз	-11.5358
▁кузьмаз	-11.5359
▁эскеры	-11.536
▁щитъёс	-11.5362
▁кортӵог	-11.5368
▁кӧты	-11.5378
покчи	-11.5383
▁нюжӧд	-11.5394
▁дугдытэ	-11.5397
▁чигиськись	-11.5397
▁пор	-11.5398
▁быръе	-11.5402
▁ыстэ	-11.5416
кт	-11.5417
▁чир	-11.5421
▁пыдын	-11.5425
ология	-11.5426
▁кадколаст	-11.5428
▁предприятиеяслы	-11.543
Пук	-11.543
▁васько	-11.5434
▁кеносъёс	-11.5439
▁чор	-11.5452
▁шундыпуксён	-11.5453
▁шобырскы	-11.5454
▁машина	-11.546
Оскиськон	-11.546
▁Пил	-11.5461
▁компания	-11.5463
▁супыльт	-11.5464
съяс	-11.5465
▁ветыл	-11.5466
▁синзэ	-11.5466
Эксэйлы	-11.5468
▁пырись	-11.5468
▁возёнъёс	-11.5472
▁байлык	-11.5472
▁адӟонзэ	-11.5474
▁кож	-11.5485
▁пуры	-11.5486
кураськись	-11.549
▁ыстӥ	-11.5496
удкемозь	-11.5497
▁возьыт	-11.5498
▁лекъяськон	-11.5503
▁таза	-11.5503
«[	-11.5509
▁йитӧд	-11.5509
▁куж	-11.5511
▁куректэ	-11.5514
сьым	-11.5515
Македония	-11.5521
люк	-11.5531
лляз	-11.5532
▁куалектӥ	-11.5535
▁куз	-11.5544
тыршись	-11.5546
▁куалекъяты	-11.5547
▁ымы	-11.5548
▁дунъя	-11.5548
▁выре	-11.555
ялозы	-11.5553
▁кадыс	-11.5553
▁сиёнзэ	-11.5553
Навуходоносор	-11.5557
улэп	-11.5558
▁визьнодчи	-11.5558
▁предприятие	-11.5563
▁синкыли	-11.5565
▁чутӥсь	-11.5566
сяськыса	-11.5567
вес	-11.5571
▁халдей	-11.5574
▁юртъер	-11.5575
▁капкатӥ	-11.5581
ВЫ	-11.5582
мезлы	-11.5585
уллё	-11.5587
▁быгатӥ	-11.5588
ур	-11.5594
одо	-11.5597
▁дышетскисьёс	-11.5598
елал	-11.5598
Пророк	-11.5601
жен	-11.5602
▁ожмаськисьёс	-11.5603
скем	-11.5605
▁курадӟи	-11.5608
хан	-11.5611
Атае	-11.5612
четлыкъёс	-11.5615
Эксэе	-11.5625
▁ТИ	-11.5632
кыксы	-11.5633
эскеро	-11.5634
▁левъёс	-11.5635
веськӧдлан	-11.5635
Гурезь	-11.5637
▁бурпал	-11.5638
▁шуккиськ	-11.5643
▁чилекъян	-11.5643
леком	-11.5644
таркам	-11.5644
Симеон	-11.5645
нюлэс	-11.5646
▁гудыръя	-11.5647
▁вайыку	-11.5647
Маин	-11.5648
▁сётӥсе	-11.565
▁пуштрос	-11.565
▁«8	-11.565
синмы	-11.5651
Неффалим	-11.5652
▁корам	-11.5652
▁тӧлысьӧ	-11.5653
мынэлэ	-11.5654
жоб	-11.5654
праздник	-11.5655
Аарон	-11.5655
куашкатӥсь	-11.5655
бугыръяськись	-11.5656
Саул	-11.5656
возьдаськон	-11.5656
шормуӵъёс	-11.5656
сюресъёсыд	-11.5656
шакалъёс	-11.5656
вӧсяськись	-11.5656
Аминь	-11.5657
тодмотэм	-11.5657
яратыса	-11.5658
иудей	-11.5658
быж	-11.5658
ӧрӟи	-11.5659
уйпалась	-11.5659
татчы	-11.5659
йыркурез	-11.5659
Иордан	-11.5659
▁шутэтск	-11.5659
инмар	-11.566
викышъяса	-11.566
вуоно	-11.566
кышкатэк	-11.566
ачиз	-11.5661
эшшо	-11.5661
бакель	-11.5661
емыш	-11.5661
священникъёсыз	-11.5662
куараме	-11.5662
пыж	-11.5662
храм	-11.5662
пуктӥз	-11.5664
куректыса	-11.5664
оскиськыса	-11.5665
бызьы	-11.5665
адӟемпотостэм	-11.5666
сюлмыныд	-11.5666
икъяс	-11.5666
ыргон	-11.5666
кышномуртъёс	-11.5667
ваньбур	-11.5668
дӥ	-11.567
атаез	-11.5673
куалекъян	-11.5674
ӟечгес	-11.5675
ултӥян	-11.5675
утьыса	-11.5675
▁лои	-11.5678
▁валеса	-11.568
▁азин	-11.568
куашкатэмын	-11.568
▁пырӧдч	-11.5684
▁пытса	-11.5689
ӟечсэ	-11.569
▁шуре	-11.5691
лег	-11.5691
выжыосыз	-11.5691
шонерлыкед	-11.5692
ах	-11.5693
▁Юр	-11.5697
пумитъяськы	-11.5697
Сыктывкарын	-11.5697
▁вормы	-11.5699
▁будэтӥз	-11.5699
мур	-11.5699
▁возьматск	-11.5701
▁вордӥське	-11.5701
▁инфраструктур	-11.5702
выныз	-11.5703
▁Амос	-11.5703
▁сётка	-11.5703
▁ышиз	-11.5704
▁шобырскиз	-11.5704
▁возьматӥд	-11.5706
▁паймиз	-11.5706
▁огнам	-11.5707
▁сӧриз	-11.5709
Лыктӥ	-11.5709
▁пуксёз	-11.571
▁урдскиз	-11.571
▁чигиськы	-11.5711
▁сямыны	-11.5713
▁аралоз	-11.5713
▁вераськиз	-11.5714
▁кылыны	-11.5714
пкельыса	-11.5716
▁уродлы	-11.5717
▁кисьма	-11.5718
▁оскиз	-11.5718
▁Галилея	-11.5718
тушмонъёсыд	-11.5719
▁берпуметӥ	-11.572
шонерлыкез	-11.572
▁ковчег	-11.5721
▁чырс	-11.5721
▁вирыныз	-11.5721
Вефильы	-11.5721
▁лэсьтылӥ	-11.5722
▁сузмыты	-11.5722
ӝ	-11.5723
ваньмы	-11.5723
Инмарен	-11.5723
▁Ухта	-11.5724
▁бӧрдӥсь	-11.5724
▁юрттӥз	-11.5724
▁пызь	-11.5725
▁реш	-11.5726
▁берыктӥз	-11.5728
▁гожто	-11.5728
▁тодытӥз	-11.5728
▁видзӧд	-11.5728
▁выльдо	-11.5729
▁будоз	-11.573
даур	-11.573
Вӧсяськем	-11.5731
▁вузало	-11.5731
▁дӥсяськем	-11.5734
▁йыбырттоз	-11.5734
▁кылзӥсь	-11.5734
▁вуылӥз	-11.5735
▁Ада	-11.5735
Ур	-11.5736
▁утисе	-11.5736
▁таркалоз	-11.5736
котькудзэ	-11.5737
▁изгурезе	-11.5738
ырттэм	-11.5738
▁лэсьтылӥз	-11.5738
▁посёлок	-11.5738
нимат	-11.5739
▁кубометр	-11.5739
▁улыкуд	-11.5739
▁умоесь	-11.574
▁понӥсько	-11.574
бу	-11.574
тчалэ	-11.574
▁конверт	-11.5741
Ӵук	-11.5741
▁коралоз	-11.5742
умага	-11.5742
▁этша	-11.5742
Ванд	-11.5743
▁мероприятие	-11.5743
▁ӟыгырт	-11.5743
▁шобырско	-11.5743
▁чеберъяськон	-11.5743
Куалекъя	-11.5743
ӟургетӥсь	-11.5743
▁Сӧвет	-11.5743
▁гӧлӧс	-11.5743
Тылобурдо	-11.5743
▁Павлов	-11.5743
▁педагог	-11.5743
▁субсиди	-11.5743
Бырон	-11.5743
Валентин	-11.5743
Ворлдскиллс	-11.5743
Гажаноосы	-11.5743
Газпром	-11.5743
Дмитри	-11.5743
Дӥськут	-11.5743
Мадён	-11.5743
Праздник	-11.5743
Пӧйшур	-11.5743
Савхей	-11.5743
Тӧлпери	-11.5743
Удалтӥсь	-11.5743
контроль	-11.5743
обычнӧй	-11.5743
эфиоп	-11.5743
ӟургетыса	-11.5743
▁Амалик	-11.5743
▁Арпад	-11.5743
▁Вилдад	-11.5743
▁Еммануил	-11.5743
▁Койгорт	-11.5743
▁Навин	-11.5743
▁Навузардан	-11.5743
▁Сарра	-11.5743
▁Сераия	-11.5743
▁Софония	-11.5743
▁Украина	-11.5743
▁академия	-11.5743
▁инструмент	-11.5743
▁кесарьлэ	-11.5743
▁кузёяське	-11.5743
▁леспромхоз	-11.5743
▁мусир	-11.5743
▁печатез	-11.5743
▁пылатӥськыны	-11.5743
▁риза	-11.5743
▁саридз	-11.5743
▁смесьяс	-11.5743
▁спортивнӧ	-11.5743
▁средствояс	-11.5743
▁чалеп	-11.5743
▁челядя	-11.5743
Быгатэ	-11.5743
Книга	-11.5743
Сӥзён	-11.5743
Сӧвещание	-11.5743
▁Герой	-11.5743
▁Иосафат	-11.5743
▁Кононов	-11.5743
▁Кузнецов	-11.5743
▁безопасносьт	-11.5743
▁буртчин	-11.5743
▁нормаяс	-11.5743
▁рудаясл	-11.5743
▁секретар	-11.5743
▁урӟект	-11.5743
▁цевница	-11.5743
Кесарьлэ	-11.5743
пилиськем	-11.5743
▁Ахмеева	-11.5743
▁Карись	-11.5743
▁виёме	-11.5743
▁кредитъяс	-11.5743
▁редак	-11.5743
▁роч	-11.5743
▁сӧвещание	-11.5743
▁тӧдӧмлун	-11.5743
Шайгу	-11.5743
кредит	-11.5743
мдін	-11.5743
▁кышкаменызы	-11.5743
Гумы	-11.5743
Кытчы	-11.5743
Пытсэт	-11.5743
Ӝикаса	-11.5743
Дерт	-11.5743
цент	-11.5743
▁Кадес	-11.5743
▁лабрес	-11.5743
▁предпри	-11.5743
▁энергетик	-11.5743
▁сервис	-11.5743
▁ӵыжатэ	-11.5743
▁грамота	-11.5743
Погра	-11.5743
Тодэлэ	-11.5743
Чурыт	-11.5743
▁документация	-11.5743
▁цифр	-11.5743
▁петкӧдласъяс	-11.5743
▁участокы	-11.5743
▁гираос	-11.5743
▁чукӧртӧ	-11.5743
▁берыктӥськоз	-11.5743
▁ӧтвылысь	-11.5743
▁Рецин	-11.5743
▁курытпот	-11.5743
▁Сӥнай	-11.5743
▁ломтас	-11.5743
▁пиштоз	-11.5743
▁вырӟытъя	-11.5743
гульым	-11.5743
▁мычо	-11.5743
▁выриз	-11.5743
▁вӧлдо	-11.5744
▁сизим	-11.5744
▁сулал	-11.5744
▁кутсало	-11.5744
▁паёк	-11.5744
Рахиль	-11.5744
▁вузасян	-11.5744
▁кисьта	-11.5744
▁лёк	-11.5744
▁окот	-11.5744
▁Мидия	-11.5744
парк	-11.5744
▁йылпумъяськиз	-11.5744
▁усьтӥсь	-11.5744
▁утиськемъёс	-11.5744
▁сӧрисьёс	-11.5744
Пиосыд	-11.5744
▁Фарес	-11.5744
▁видзӧдтӧг	-11.5744
▁ватӥськиз	-11.5744
▁меститч	-11.5744
Ыргон	-11.5744
▁лэдз	-11.5744
лектр	-11.5744
▁висьӧмъяс	-11.5744
▁уйиськисьёс	-11.5744
▁кӧлуй	-11.5744
▁тростник	-11.5744
▁левитъёс	-11.5744
▁ӝуатскоз	-11.5744
Писпу	-11.5744
▁нёль	-11.5744
▁ӵошкаты	-11.5744
▁усья	-11.5744
▁первой	-11.5744
Тіян	-11.5744
▁лобӟоз	-11.5744
▁йит	-11.5744
▁стрӧитчӧмсӧ	-11.5744
▁козин	-11.5744
▁24	-11.5744
Авен	-11.5744
▁Олысьяс	-11.5744
▁небыд	-11.5744
▁паньгат	-11.5744
▁вӧзйӧмъяс	-11.5744
▁кутӥськыса	-11.5744
▁кырныж	-11.5744
ласти	-11.5744
▁бумага	-11.5744
▁тэрыб	-11.5744
Валес	-11.5744
▁помшуӧмъяс	-11.5744
Осанна	-11.5744
▁25	-11.5744
▁учкиськы	-11.5744
▁сынаськоды	-11.5744
▁ангес	-11.5744
▁вӧся	-11.5745
▁тулкымъясько	-11.5745
▁шундыпуксёнозь	-11.5745
Пукыӵ	-11.5745
Шурдыт	-11.5745
▁ӧлӧд	-11.5745
Бускельёсмы	-11.5745
▁Вирыныз	-11.5745
▁лапег	-11.5745
▁золтӥсьёс	-11.5745
▁мукӧдтор	-11.5745
▁помӧдз	-11.5745
▁восьса	-11.5745
▁корӧмъяссӧ	-11.5745
▁кышкатске	-11.5745
гиена	-11.5745
▁21	-11.5745
Екрон	-11.5745
▁пуктылыса	-11.5745
парен	-11.5745
▁казна	-11.5745
▁гимназия	-11.5745
змаил	-11.5745
▁нюм	-11.5745
▁отделение	-11.5745
▁ошкис	-11.5746
▁эпидемия	-11.5746
▁кышкатъя	-11.5746
▁ошпи	-11.5746
▁выйизы	-11.5746
▁везъяс	-11.5746
Тӧв	-11.5746
▁вожектэ	-11.5746
▁азьветлӥсе	-11.5746
▁мынтӧм	-11.5746
▁воча	-11.5746
▁быдэсмытозь	-11.5746
▁юрдо	-11.5746
▁карылӥз	-11.5746
▁йылъёсад	-11.5746
▁йырвекчи	-11.5746
▁лыдпасъяс	-11.5746
▁артавны	-11.5746
▁куйлӧдъяс	-11.5746
▁бырӧдӧм	-11.5746
▁лыаяслысь	-11.5747
▁чеберъям	-11.5747
Ӵош	-11.5747
▁куалекъясько	-11.5747
▁кыллисьёс	-11.5747
▁Святоез	-11.5747
▁шулдырто	-11.5747
▁пӧрме	-11.5747
Дыртыса	-11.5747
▁пурӟиз	-11.5747
▁ортчисьёс	-11.5747
▁Иоафам	-11.5747
▁МЮ	-11.5747
▁кесяськисько	-11.5747
Кыдёкысен	-11.5747
▁вандӥсь	-11.5748
▁улэпкын	-11.5748
▁ивортӥсько	-11.5748
▁збыльмӧдан	-11.5748
▁меӵ	-11.5748
▁гыж	-11.5748
▁содтӧм	-11.5748
▁мурдалаосыз	-11.5748
▁дурозь	-11.5748
▁учкиськод	-11.5748
▁шурдыт	-11.5748
▁пӧяло	-11.5748
▁улӟытоз	-11.5748
Зарниен	-11.5749
▁тэнад	-11.5749
ённӧй	-11.5749
▁чаль	-11.5749
астер	-11.5749
▁эта	-11.5749
адямиосты	-11.5749
▁комокъёс	-11.575
▁культое	-11.575
никъяс	-11.575
льми	-11.575
▁куриськемме	-11.575
Шаплы	-11.575
▁страналысь	-11.575
▁кылзӥзы	-11.575
▁ӟыгыртӥзы	-11.575
▁тупалась	-11.575
▁кылдоз	-11.5751
▁Шу	-11.5751
▁Анания	-11.5751
Виыл	-11.5751
▁Ливия	-11.5751
▁дӥсяськытэк	-11.5751
▁12	-11.5751
▁вер	-11.5751
чиньыос	-11.5751
▁гурезяд	-11.5751
▁пельёссы	-11.5751
▁тимпан	-11.5751
▁вакцинируйтны	-11.5751
▁мозмытскыны	-11.5751
▁пророкъёсыз	-11.5751
Ионафан	-11.5751
▁уйылӥське	-11.5751
▁уськытылӥзы	-11.5752
▁азьысен	-11.5752
Мегапроект	-11.5752
▁юрттӥд	-11.5752
▁сюрид	-11.5752
▁шыкысысьтыз	-11.5752
▁творчество	-11.5752
гтыр	-11.5752
▁йылӥ	-11.5752
▁шӧдэ	-11.5752
▁сузмытоз	-11.5753
▁изён	-11.5753
▁валасьтэмесь	-11.5753
Басьт	-11.5753
▁вӧсяськелэ	-11.5753
▁сосудъёссэ	-11.5753
▁ляльчиосыд	-11.5753
▁мертаз	-11.5753
▁пушйи	-11.5754
▁олӧмсӧ	-11.5754
▁синчебер	-11.5754
вкаяс	-11.5754
▁кылёды	-11.5754
▁улэменыд	-11.5755
▁мычиз	-11.5755
▁вайытӥсько	-11.5756
Канму	-11.5756
▁ӵошатыса	-11.5756
▁шумпоттэ	-11.5756
▁сиылӥз	-11.5757
▁кипарис	-11.5757
▁пальма	-11.5758
Лыктоз	-11.5758
▁интыя	-11.5758
▁Инта	-11.5758
нылпиосы	-11.5758
▁Дурбасьтӥсь	-11.5758
▁Мемфис	-11.5758
▁Хеврон	-11.5758
▁рубин	-11.5758
▁Нево	-11.5758
▁кибашлы	-11.5758
▁Трисчетная	-11.5758
▁ярдур	-11.5758
▁Сыктыв	-11.5758
▁Пошта	-11.5758
▁шонертэлэ	-11.5759
▁Сӥлом	-11.5759
▁вормиз	-11.5759
▁кӧтӝожен	-11.5759
▁пытсамын	-11.5759
▁шобырскозы	-11.5759
▁ултӥялэ	-11.5759
▁йылӥяз	-11.5759
▁тунаськыса	-11.5759
▁огдырлы	-11.5759
▁Азария	-11.5759
▁сюлэмоесь	-11.5759
▁кулӥсь	-11.5759
▁куаретэ	-11.576
▁пасьта	-11.576
▁Тимофей	-11.576
лляй	-11.576
▁мертан	-11.576
▁оскалт	-11.576
▁азвесед	-11.5761
▁буйгатоз	-11.5761
▁эрикезъя	-11.5761
▁вылӥяз	-11.5761
▁дӥсьтэ	-11.5761
▁кылдӥзы	-11.5761
▁тышкаськон	-11.5761
▁ческытэсь	-11.5761
▁Хира	-11.5761
▁тӥяса	-11.5761
▁канжаськизы	-11.5761
▁пӧрмимы	-11.5762
пен	-11.5762
лач	-11.5762
▁умоесьгес	-11.5762
▁сайкалэ	-11.5762
▁луисьтэмзэ	-11.5763
▁дӥсяло	-11.5763
Оскиськы	-11.5763
▁бри	-11.5763
▁чеберлыксэ	-11.5763
▁кошкелэ	-11.5763
▁дӥсяськозы	-11.5764
▁киостэс	-11.5764
▁мера	-11.5764
▁шеремын	-11.5764
▁куине	-11.5765
▁ожмаськизы	-11.5765
▁сузяло	-11.5765
▁пӧртысьӧн	-11.5765
▁бакельлыко	-11.5765
Кылзӥське	-11.5765
▁думем	-11.5765
Шумпотон	-11.5765
▁дураз	-11.5766
▁мычоз	-11.5766
три	-11.5766
▁басьтӥськоз	-11.5766
▁тшӧктӧмсӧ	-11.5766
▁сузялоз	-11.5766
▁лов	-11.5766
▁матысед	-11.5766
▁Утисед	-11.5766
▁пыдтышъёсс	-11.5766
▁медоосыз	-11.5766
▁вуттӥзы	-11.5766
▁берпуметӥез	-11.5767
▁кудӥ	-11.5767
▁аддзысьліс	-11.5768
Бугыръяськись	-11.5768
▁кырымалі	-11.5768
шулдыръяськись	-11.5768
▁сэрпалтыса	-11.5769
▁кышкатскизы	-11.5769
▁виясь	-11.5769
▁быдэсмем	-11.5769
▁эшъёссэ	-11.5769
▁ортчытэ	-11.5769
▁оскиськомы	-11.5769
▁ворсалозы	-11.577
▁емышеныз	-11.577
▁кылӥськомы	-11.577
▁Сосногорск	-11.5771
▁жалясьтэм	-11.5771
▁быдӟымлыкед	-11.5772
▁сетасны	-11.5772
▁шылада	-11.5772
▁чашаосты	-11.5772
▁сэзъяса	-11.5773
▁адӟисьтэм	-11.5774
▁тренерлы	-11.5775
▁бичалозы	-11.5775
залог	-11.5775
▁тулкымъёсыз	-11.5775
▁модосэз	-11.5775
▁вордскытэ	-11.5776
▁ваньбурдэ	-11.5776
▁вераськемзэс	-11.5776
▁юоз	-11.5776
▁крем	-11.5776
Ӟечлыко	-11.5777
▁ватӥзы	-11.5777
▁возиськыны	-11.5777
▁вордскытӥз	-11.5777
▁органъясӧн	-11.5777
▁сӥзиз	-11.5778
▁Ухтаса	-11.5778
▁балаган	-11.5778
▁садаз	-11.5779
▁думемын	-11.5779
▁юатэк	-11.5779
▁йылам	-11.5779
Адӟон	-11.5779
Кузёе	-11.5779
вылын	-11.578
▁быдтӥськод	-11.578
▁Мир	-11.578
▁пертчы	-11.578
▁мугез	-11.578
▁чорыгъёсты	-11.5781
▁вузэмез	-11.5781
▁юалэ	-11.5782
▁сётӥсьёсты	-11.5782
кылзы	-11.5782
▁кышное	-11.5782
▁уськытъяз	-11.5783
▁сульдэръёсынызы	-11.5783
▁кыстаськон	-11.5783
▁йыружъёсыз	-11.5783
▁шыд	-11.5784
▁жугыса	-11.5784
▁тырмымтэ	-11.5784
▁шутэтскозы	-11.5784
▁чеберлыко	-11.5784
Шуод	-11.5784
▁Пасхор	-11.5784
▁ёркыт	-11.5784
▁мылес	-11.5784
▁улэмъёссэс	-11.5785
▁жугиськон	-11.5785
Гажано	-11.5785
▁Газа	-11.5785
▁тшӧт	-11.5785
▁киосыд	-11.5785
▁Эксэе	-11.5785
▁тырмытэмын	-11.5785
▁пыдтышъёсы	-11.5786
Пум	-11.5786
▁тусбуйзы	-11.5786
▁вожан	-11.5786
▁чайт	-11.5786
▁тырис	-11.5787
▁сводкас	-11.5788
▁басьтысал	-11.5789
▁идумейёс	-11.5789
геры	-11.5789
▁берыктӥд	-11.5789
▁шуылӥз	-11.5789
▁кышкатонэз	-11.579
лексы	-11.579
▁юрттӥзы	-11.579
▁кӧлэ	-11.579
>2021	-11.5791
Ассэ	-11.5791
▁пукоз	-11.5791
Чаклась	-11.5791
▁вылтӥяськонзэ	-11.5792
▁сыназы	-11.5792
▁пуксид	-11.5793
▁вордскытӥд	-11.5793
▁збыльмӧдӧмысь	-11.5793
▁люкай	-11.5794
▁лёгалозы	-11.5795
▁чолӧмалӧ	-11.5795
▁оскизы	-11.5796
▁ӵушказ	-11.5796
▁вырйылъёсысь	-11.5796
НА	-11.5797
▁вӧлмиз	-11.5797
▁ён	-11.5797
▁пумъёсыз	-11.5797
▁лушкаськисьёс	-11.5797
▁ужалозы	-11.5798
▁вузам	-11.5798
▁воргорон	-11.5798
туялан	-11.5798
▁ставсӧ	-11.5799
▁ыбылӥськисьёс	-11.58
▁жильыетэ	-11.58
▁черс	-11.58
ачьяс	-11.5801
▁босьтысь	-11.5802
▁дугдыто	-11.5802
▁кузёйыръёсты	-11.5802
▁усьтоз	-11.5802
▁кӧтты	-11.5803
▁учыръёс	-11.5803
▁таланы	-11.5803
▁Сӥн	-11.5804
супыр	-11.5804
▁куараосты	-11.5805
▁мултэсмыт	-11.5805
▁йылъёсын	-11.5805
▁ыштон	-11.5805
▁сиктын	-11.5806
▁бугыръясько	-11.5806
▁уллясьёс	-11.5807
Кора	-11.5807
▁вазиськылыку	-11.5807
▁оскиськозы	-11.5808
▁сётӥськыса	-11.5808
▁валтӥсьёс	-11.5809
▁изгурезьёс	-11.5809
▁малпанъёсме	-11.581
▁ньӧр	-11.581
▁тузонэз	-11.5811
▁вазиськиз	-11.5811
▁Рабсак	-11.5811
▁вуттод	-11.5812
▁яратӥськод	-11.5812
▁луэменызы	-11.5812
▁мирра	-11.5812
▁сюлэмам	-11.5813
▁чеберлыкез	-11.5813
▁шедьтоды	-11.5813
▁бурмытоз	-11.5814
жалянэн	-11.5814
▁улӟоз	-11.5816
▁ӧрекчаськонэн	-11.5816
▁вуэмъёс	-11.5816
▁ляльчиосыдлы	-11.5816
▁тыризы	-11.5816
▁яратыны	-11.5816
▁пӧрмытӥды	-11.5817
▁бызёз	-11.5817
▁вайиськод	-11.5817
▁тунгон	-11.5818
▁юнлыкез	-11.5818
▁нуналъёсам	-11.5818
▁оскиськиськомы	-11.5818
▁тэрытскыны	-11.5819
адӟе	-11.5819
▁чебергес	-11.5819
▁малпанъёсты	-11.5819
▁мадёнэз	-11.5819
▁вылӥгес	-11.5819
▁ивортӥсьлэн	-11.582
▁мыноно	-11.582
▁басьяськись	-11.582
▁куэ	-11.5821
▁Кер	-11.5821
дӥськутэн	-11.5822
▁йылозы	-11.5822
▁курбондэс	-11.5823
▁ӝужам	-11.5823
▁сюремын	-11.5824
▁бӧрдӥсьёс	-11.5824
▁кывъяс	-11.5824
▁олӧмын	-11.5825
▁ярась	-11.5825
▁штабӧ	-11.5825
▁куазе	-11.5826
▁дугдозы	-11.5826
▁се	-11.5826
▁пайдатэм	-11.5826
▁семьяез	-11.5826
▁ватсалоз	-11.5827
▁скинияез	-11.5828
скаяс	-11.5829
льство	-11.5829
▁азьвылгес	-11.5829
Веран	-11.5829
▁виялоз	-11.5829
▁люкъёс	-11.5829
▁кылзӥськыны	-11.583
▁каремды	-11.583
▁кузёяськыны	-11.5831
▁виёзы	-11.5831
▁куашкалозы	-11.5832
▁чаклай	-11.5832
▁султӥсьёслэсь	-11.5832
▁улляны	-11.5832
▁сӧвмӧдӧмын	-11.5833
▁узырлыксэс	-11.5835
Й	-11.5835
▁вуосыд	-11.5836
Визьнодоос	-11.5837
▁вырӟы	-11.5837
▁тӥрен	-11.5837
▁Атайзы	-11.5839
▁сюрсъёсын	-11.5839
▁кулоды	-11.5839
▁куашказы	-11.584
▁бугыръяське	-11.584
▁шедьтозы	-11.5841
▁воштӥськоз	-11.5841
▁юртэн	-11.5842
▁эксэйлыкъёсын	-11.5842
▁бурмем	-11.5843
▁быж	-11.5843
▁чылкыта	-11.5844
▁шобыртон	-11.5844
▁тодӥд	-11.5844
ФС	-11.5845
▁поттӥськоды	-11.5846
▁вуттон	-11.5848
анаез	-11.5849
▁малпаськод	-11.585
▁палэнтӥзы	-11.585
▁уллязы	-11.585
Сӥонэз	-11.585
▁ватӥсько	-11.5851
▁канжаськоз	-11.5851
▁веськӧдлысьлы	-11.5852
▁Хам	-11.5853
▁лэсьтӥсьтэм	-11.5854
▁олӧма	-11.5855
▁бугырто	-11.5855
▁пелляса	-11.5855
кенешез	-11.5856
▁садысь	-11.5857
▁производствояс	-11.5857
атель	-11.5857
▁мыче	-11.5858
▁ужамез	-11.5858
▁кылемъёсыз	-11.5859
▁нёжалзы	-11.5859
▁пуктылӥзы	-11.5859
▁ивортӥзы	-11.586
▁выжыоссы	-11.5861
▁див	-11.5861
▁басьтонэз	-11.5861
▁берытскыны	-11.5862
▁сюресэдлы	-11.5862
▁куштӥськемын	-11.5863
▁Аскалон	-11.5865
▁перв	-11.5865
▁пелляськисьёс	-11.5865
кивалтӥсьёслы	-11.5865
▁йыбыртъяса	-11.5865
▁юрттӥсе	-11.5867
▁бызёзы	-11.5867
▁музъемъёсы	-11.5867
▁виизы	-11.5868
▁кыкетӥез	-11.5869
▁чакланы	-11.5871
гидъёс	-11.5871
▁тшупӧдын	-11.5871
▁ӟечлыксэ	-11.5872
▁арескы	-11.5872
фе	-11.5873
▁Яратон	-11.5873
Сюлмыд	-11.5873
▁петкӧдл	-11.5875
▁азбар	-11.5876
▁мычиськ	-11.5876
▁быдтӥсько	-11.5877
▁вынзэ	-11.5877
▁эксэйлыкед	-11.5878
▁шобыртӥзы	-11.5878
▁писпуосты	-11.5878
юк	-11.5882
▁ӝутӥськод	-11.5882
▁священникъёсты	-11.5882
валанзэ	-11.5883
▁Ассирияысь	-11.5884
▁эксэед	-11.5884
▁храмысь	-11.5885
▁ӟечкыла	-11.5885
▁кельтӥсько	-11.5886
▁шӧринъяс	-11.5886
▁сер	-11.5886
▁луисьтэм	-11.5888
▁потоды	-11.5889
▁лэсьтоды	-11.5889
▁збыльмӧдіс	-11.5891
▁возиськон	-11.5892
▁Завулон	-11.5892
гома	-11.5895
▁визьдэ	-11.5895
▁котырам	-11.5895
Уз	-11.5895
ӧмторъяс	-11.5895
пур	-11.5895
▁уждэс	-11.5898
▁странаяс	-11.5899
▁кырӟанэз	-11.5899
▁утёнзэ	-11.5899
▁вандон	-11.5901
▁вордски	-11.5902
▁люказы	-11.5906
▁кышноен	-11.5908
▁Иоакимлэн	-11.5911
▁эркияськ	-11.5911
▁данлыксы	-11.5912
▁узь	-11.5913
еныды	-11.5913
▁корсь	-11.5913
▁думыл	-11.5914
алӧм	-11.5918
▁ёртӥсь	-11.5918
асьсэлы	-11.5918
▁ӝутскизы	-11.5918
▁Нырысь	-11.592
▁лулыныд	-11.5923
▁нимаськозы	-11.5923
▁валтӥсь	-11.5926
▁кужымды	-11.5926
▁емышо	-11.5927
▁кустэ	-11.5928
▁Инд	-11.593
▁солдатъёс	-11.5931
▁быдтонэз	-11.5931
▁сюрез	-11.5932
▁некыдз	-11.5932
▁атайды	-11.5932
бырись	-11.5932
▁каньыллыко	-11.5934
▁ӝутӥзы	-11.5936
▁тыронзэ	-11.5937
▁нуллон	-11.5938
▁бичаса	-11.5938
▁лэсьтоно	-11.594
▁утчаз	-11.594
▁вожектӥ	-11.5941
▁ляльчиезлы	-11.5942
▁карас	-11.5943
▁куашкатозы	-11.5943
▁синкылиос	-11.5944
▁Юрьев	-11.5945
▁сямзы	-11.5947
▁кыксэ	-11.5949
▁турттӥськод	-11.5951
▁коже	-11.5954
▁гуосаз	-11.5954
▁утчазы	-11.5957
▁кылзыны	-11.5957
▁инмарезл	-11.596
▁погыртозы	-11.596
▁ӧтчам	-11.5961
▁шунтӥськ	-11.5963
▁сиа	-11.5963
асьмемын	-11.5965
▁люкетсэс	-11.5966
▁карелэ	-11.5967
▁участвуйтӧм	-11.5968
▁анайзы	-11.5969
улвайёс	-11.5972
▁Ойдолэ	-11.5975
шаеръёсын	-11.5983
▁улонзылэн	-11.5984
▁сьӧразы	-11.5985
▁сӥзёнэз	-11.5985
▁зарнизэ	-11.5985
▁мылкыдзэ	-11.5986
▁вандыло	-11.5987
▁омыръя	-11.5987
тарка	-11.5988
▁нюръясько	-11.599
▁ляльчиезлэн	-11.5991
▁кельтозы	-11.5991
▁дышетскисьёссэ	-11.5992
▁гижис	-11.5993
▁выльмӧд	-11.5993
▁каръёсты	-11.5994
▁сюйысь	-11.5995
▁юэз	-11.5996
▁тазалык	-11.5999
▁вирзэ	-11.6002
▁усьтӥзы	-11.6006
▁кыйёс	-11.6009
▁зоры	-11.6011
▁мугорын	-11.6013
▁кон	-11.6014
кайгуэн	-11.6018
▁ӝом	-11.602
ӧня	-11.6021
▁мынӥсьёслэн	-11.6021
▁пурыос	-11.6023
▁мертась	-11.6023
ард	-11.6028
▁бурм	-11.603
▁эксэйлыкъёслэн	-11.6031
▁вазиськылы	-11.6032
▁кӧдзыд	-11.6032
▁кышкано	-11.6034
мла	-11.6036
Лар	-11.6036
▁данэд	-11.6037
▁валтӥз	-11.6038
▁люкыл	-11.604
▁гожтӥське	-11.6041
▁малпад	-11.6041
▁гырись	-11.6043
▁улӥсьёсызлы	-11.6045
▁кышноясько	-11.6045
Тушмонэ	-11.6046
▁кутылӥсь	-11.6046
▁кышказы	-11.6048
▁визьтэмъяськ	-11.6049
▁супыльтон	-11.6054
▁гурезьме	-11.6055
▁пуктылӥд	-11.6058
▁муса	-11.606
▁мугоры	-11.6061
▁сэп	-11.6062
▁черекъяло	-11.6062
ыкуд	-11.6064
▁выльды	-11.607
едводдза	-11.607
▁дырды	-11.607
▁пуксизы	-11.6071
▁Вань	-11.6071
изьӧр	-11.6072
▁огмы	-11.6073
▁коркась	-11.6073
▁тӧдч	-11.6074
▁дыръяды	-11.6076
78	-11.6076
▁возёзы	-11.6078
▁вазиськисьтэм	-11.6078
▁малпанъёсыд	-11.6078
▁адямиоссэ	-11.608
▁кылдыто	-11.6082
Оты	-11.6083
▁быръемын	-11.6083
Нин	-11.6084
▁атайёсыныз	-11.6084
▁ӵындытон	-11.6084
Укылтэмъёс	-11.6087
▁Суд	-11.6087
▁оже	-11.6088
▁сайкато	-11.6088
▁пега	-11.6089
▁данлыкезлэсь	-11.6095
енда	-11.6095
▁ымнырыд	-11.6097
▁кисьтӥсьёс	-11.61
▁нылпиосыныз	-11.61
▁веськ	-11.6102
▁ваньмызлэн	-11.6102
▁власьтъяс	-11.6104
▁киыным	-11.6104
▁городэн	-11.6105
▁кышноед	-11.6106
▁нылзэ	-11.6107
▁котьма	-11.6108
оослэн	-11.6109
▁каньсырам	-11.6111
▁инмаръёслэсь	-11.6112
▁Кыл	-11.6116
▁лэсьтод	-11.6116
▁вылынгес	-11.6118
▁вутэм	-11.6119
▁нюж	-11.6119
▁духеныз	-11.6122
▁куриськы	-11.6125
▁вайны	-11.6128
Ул	-11.6128
ӧйын	-11.613
▁усьтылы	-11.6131
▁малпанъёсы	-11.6132
▁покчиос	-11.6134
адямилэсь	-11.6135
рдысь	-11.6135
▁верады	-11.6137
Синъёстэ	-11.614
Куа	-11.6143
▁пазьгем	-11.6144
▁ӝокатӥз	-11.6145
▁ӟырда	-11.6146
▁пасьёс	-11.615
▁падвожъёс	-11.6161
иссон	-11.6164
▁пророкез	-11.6165
Воже	-11.6167
▁интыысьтыд	-11.6167
поглянъёсыз	-11.6168
эскериськод	-11.6172
▁канжаськыло	-11.6172
▁ултӥясьёс	-11.6175
▁войское	-11.6175
▁киос	-11.6176
сьыс	-11.6177
Лоба	-11.618
▁азямы	-11.618
Ті	-11.6182
▁яратӥсьёслы	-11.6183
пум	-11.6185
▁жаляз	-11.6185
▁уллям	-11.6186
▁выжо	-11.6187
▁нимынызы	-11.6188
▁пӧрмытӥськод	-11.619
▁ишкал	-11.6191
▁Ю	-11.6193
▁сыӵезэ	-11.6194
▁тӥяз	-11.62
▁тылобурдолэн	-11.62
жа	-11.6204
▁узырлыкеныз	-11.6204
Югыт	-11.6204
▁уйвӧтъёс	-11.621
▁кельтыса	-11.6212
▁0	-11.6212
▁бервылъёс	-11.6221
▁гырем	-11.6223
▁лякиськы	-11.6224
▁юрӟымлык	-11.6231
▁Езекиялы	-11.6235
▁сяськалы	-11.6237
▁гожъям	-11.6245
▁Нунал	-11.6249
▁Давидлэсь	-11.625
▁чеберез	-11.625
Инмармылы	-11.6252
▁винаез	-11.6254
▁тугась	-11.6257
▁курдаса	-11.626
ёз	-11.6263
▁нылпиослы	-11.6264
];	-11.6266
Ушъял	-11.6269
дй	-11.627
Палкышноос	-11.6272
▁курадӟыты	-11.6275
лэмзы	-11.6275
▁пыдс	-11.6277
▁лулызлы	-11.6277
▁сантэмам	-11.6279
Вер	-11.6279
кузэн	-11.628
Ан	-11.628
ясӧн	-11.6281
▁пограм	-11.6281
анаед	-11.6281
▁сюлмаськем	-11.6283
Ӝутэ	-11.6291
▁изгурезьлэн	-11.6297
Ен	-11.6305
скыны	-11.6307
▁Оскон	-11.6315
▁поттылы	-11.6318
▁левпиос	-11.6325
елэ	-11.6326
▁узырлыктэ	-11.6327
▁Утисьме	-11.633
▁потӥсьёс	-11.633
▁сиес	-11.6332
▁шуӧмӧ	-11.6335
Ту	-11.6338
▁тӧроосс	-11.6343
▁отсась	-11.6344
▁музъемысен	-11.6352
Люкаське	-11.6353
лышт	-11.6354
ьӧ	-11.6355
чере	-11.6355
▁вет	-11.6358
▁туноос	-11.6358
▁Трос	-11.636
▁куашетэ	-11.636
пеллёос	-11.6364
синъёссэ	-11.637
▁сай	-11.6375
зал	-11.6375
▁пырисько	-11.638
священникъёс	-11.6384
▁кылмы	-11.6393
ру	-11.6394
▁пужейёс	-11.6397
▁лэсьтӥське	-11.6397
▁киосы	-11.6398
▁дышетэмзэ	-11.6398
▁сылӥ	-11.6399
сьёслы	-11.6409
▁сильтӧлэн	-11.6416
▁нуӧдӧ	-11.6421
▁виылӥз	-11.6421
▁кивалтӥсьёслы	-11.6421
▁ляблык	-11.6422
▁пуз	-11.643
▁юнматылӥ	-11.6432
▁сьӧлтэтаз	-11.6433
▁ӵындыт	-11.6436
▁пытсэты	-11.6442
▁золто	-11.6442
▁дыръёс	-11.6443
фир	-11.6447
▁вамышъёссэ	-11.6448
▁сузмытӥз	-11.6458
▁сюлмаськись	-11.6459
▁китӥ	-11.646
▁кулэсм	-11.6462
▁сэзъя	-11.6471
янгыш	-11.6473
тарказ	-11.6485
▁нуллӥз	-11.6485
▁празднике	-11.6485
▁улонзэс	-11.6494
курект	-11.6494
Торй	-11.6494
▁быдӟымлыкен	-11.6496
▁дырзэ	-11.6502
КУ	-11.6505
▁толэз	-11.6511
бинет	-11.652
Сётэ	-11.6521
атскон	-11.6527
▁возьыку	-11.6527
▁быгатыса	-11.6528
▁Эксэйлыке	-11.6528
Кошки	-11.6536
▁уйиськ	-11.6538
▁куштӥськисьёс	-11.6542
▁лёгисько	-11.6547
▁Уй	-11.6572
▁каронзы	-11.6577
малпандэ	-11.6583
айлэн	-11.6584
ӟечлык	-11.6584
Кып	-11.6585
коды	-11.6586
▁Инмарзэс	-11.6591
▁фондлы	-11.6592
▁сте	-11.6592
▁вазиськем	-11.6596
огды	-11.6599
▁бе	-11.66
▁ужасько	-11.6608
▁жильые	-11.661
▁косонъёсыд	-11.661
▁кышномуртлэсь	-11.6616
▁оши	-11.6617
бускельёс	-11.6617
▁чеберъянъёсын	-11.6621
суйбыгытэд	-11.663
▁Иванов	-11.6635
▁пуныос	-11.664
азыса	-11.6642
▁юнматыса	-11.6642
▁воын	-11.6643
ульчаос	-11.6652
онов	-11.6653
▁гажало	-11.6653
▁кышкасьтэмъёсын	-11.6655
Йыркуръяськ	-11.6659
▁пачылмыто	-11.6664
▁куяло	-11.6667
▁эскериз	-11.6669
▁тыро	-11.6677
▁помас	-11.6677
▁эксэймы	-11.668
▁тылзэ	-11.668
▁кылзӥськысал	-11.6681
▁дон	-11.6684
эныды	-11.6691
▁яраоссэ	-11.6693
▁визьмы	-11.6706
▁узырмыт	-11.6707
▁уджсикасъяс	-11.6713
утён	-11.6716
ӟыса	-11.6717
кидыссэ	-11.6726
▁кузьымдэ	-11.6731
ӵындытыса	-11.6736
валъёс	-11.674
▁туна	-11.6741
пазямын	-11.6746
▁кылзӥськисьтэм	-11.6766
▁вӧдитчӧм	-11.6768
Юн	-11.6768
▁нёжалтӥ	-11.6771
▁ортчыт	-11.6782
▁Зе	-11.6782
▁сямыныз	-11.6783
▁тырмыты	-11.6796
яр	-11.6796
ыдзи	-11.6798
ОНА	-11.6799
▁виылэ	-11.6809
Ут	-11.6814
▁сьӧрам	-11.6823
▁карылы	-11.6828
еб	-11.683
▁кыльысал	-11.6831
эдлы	-11.6835
Ермон	-11.6835
ытэм	-11.684
▁лоас	-11.6843
ымад	-11.6847
▁кужымены	-11.6857
ымнырзэ	-11.6867
ӥськоды	-11.6873
тыршозы	-11.6876
ӧдан	-11.6887
▁шедьыт	-11.69
▁куб	-11.6904
]!	-11.6905
▁интыосысен	-11.6917
ага	-11.692
осазы	-11.692
ськозы	-11.6938
ёссэс	-11.6938
▁пукыӵе	-11.6938
ёсы	-11.6939
▁кутскод	-11.6943
▁лэсьтыкуз	-11.695
кора	-11.6953
▁кырез	-11.6969
▁ӝикатӥз	-11.6969
▁юэм	-11.6978
▁сюдэ	-11.6979
даллашон	-11.6984
▁чи	-11.6992
▁ыстылӥ	-11.6997
сьяс	-11.7
▁ӝужан	-11.7009
рав	-11.7015
▁сӥл	-11.7018
▁палэнскем	-11.7029
▁люкетаз	-11.7032
▁кылыныд	-11.7045
▁сӧрисько	-11.7049
▁тӥялты	-11.7049
▁нуллоз	-11.705
Кужмоос	-11.7059
▁улонъёс	-11.7073
▁небӟыты	-11.7082
аде	-11.7088
▁шедьтыса	-11.7095
Пыдыны	-11.7103
▁воин	-11.7109
▁служит	-11.7118
▁Ре	-11.7122
▁погран	-11.7124
▁сюлэмъёс	-11.7131
▁секытлык	-11.7136
▁кудӟытӥсь	-11.7146
▁пегӟоз	-11.7146
▁будэтоз	-11.7147
▁гижло	-11.7147
▁нуллӥ	-11.7157
Кутскон	-11.7161
▁пылатӥ	-11.7162
▁кельтылӥ	-11.7163
▁вӧлэ	-11.717
аськись	-11.7174
54	-11.7177
▁тугаз	-11.718
,5	-11.7182
салмы	-11.7193
▁лыдъян	-11.7193
Юрт	-11.7195
▁кизи	-11.7196
Сюлм	-11.721
▁вылъёса	-11.7217
▁вит	-11.7227
▁уробоя	-11.7228
▁ӧтёз	-11.7231
▁ӝутка	-11.7234
▁ньӧлъёссэ	-11.7243
нна	-11.7259
пелля	-11.726
▁выдо	-11.7264
чал	-11.7266
▁тыршем	-11.7267
▁йӧт	-11.7269
▁инъетъёссэ	-11.7272
нъёсы	-11.7285
▁ултӥ	-11.7289
юонъёсын	-11.7298
▁сись	-11.7312
▁кыли	-11.7318
дышетон	-11.7328
▁верблюд	-11.7331
▁муртэд	-11.7333
лобись	-11.7337
ван	-11.7345
▁будосъёссэ	-11.7347
▁юрттӥськи	-11.7349
ытӥз	-11.7349
лод	-11.7354
▁каньсыра	-11.7357
▁луымтэ	-11.7359
▁кр	-11.7365
▁сямзэ	-11.737
мас	-11.7372
▁понысал	-11.7383
Тай	-11.7397
▁шапык	-11.74
Фавор	-11.741
▁пожа	-11.7414
▁поттӥсьёс	-11.7417
▁саптад	-11.7417
▁йыбыртъям	-11.7418
воргорон	-11.7423
▁тодметъёссэ	-11.743
▁дуръёсы	-11.7433
выжыосы	-11.7433
▁тубоз	-11.7434
алет	-11.7437
ӥськомы	-11.7444
пожась	-11.747
▁сисько	-11.7482
▁тырем	-11.7489
▁визя	-11.7495
▁воинъёс	-11.7503
вайёсыз	-11.7506
▁юи	-11.7508
▁изьыя	-11.753
Таос	-11.7534
▁нуналлэсь	-11.7536
Оск	-11.7538
лай	-11.7544
▁артал	-11.7548
▁ужасе	-11.755
▁пельёссэ	-11.7555
ті	-11.7557
▁пиосмуртъёс	-11.7561
▁Ем	-11.757
▁ивортӥсь	-11.7574
▁ыстылы	-11.7577
пыдъёсы	-11.7581
сьӧлыкъёстэ	-11.7585
вт	-11.7588
Йыркуре	-11.7589
▁мынӥ	-11.7594
▁вайисьёс	-11.7594
▁вӧч	-11.7603
▁Азот	-11.7605
▁макеоссэ	-11.762
Сак	-11.7621
▁калыкеныз	-11.7624
▁сур	-11.7624
▁яратоз	-11.766
▁дасялоз	-11.7663
ъёсысьтыд	-11.7664
бан	-11.7664
▁тодӥз	-11.7667
▁тӧло	-11.7679
лян	-11.768
▁султом	-11.7682
этш	-11.7685
▁лэсьтыл	-11.7692
▁вайыты	-11.7693
эдлэсь	-11.7697
▁врачлы	-11.7699
кылзэ	-11.77
лыксэс	-11.7702
▁вылъёс	-11.7708
▁аддз	-11.7709
Иерусалиме	-11.772
▁зӥръя	-11.7721
ега	-11.7731
2019	-11.7731
▁ӵошатск	-11.7735
▁пазяз	-11.7736
▁ӟечлыкъёсын	-11.7742
▁быдэстэм	-11.7746
▁быро	-11.7749
▁йыружъёс	-11.7754
▁шеке	-11.777
пир	-11.7788
▁ӧръяськ	-11.779
ган	-11.7791
ъёсыдлэсь	-11.7793
▁курадӟонъёсы	-11.7796
ха	-11.7799
▁мади	-11.7803
▁ге	-11.7804
▁вӧсясько	-11.781
▁ӝожомы	-11.782
▁кышнооссэ	-11.7835
утё	-11.7835
выжые	-11.784
▁визьтэм	-11.7841
талан	-11.7842
ызъя	-11.7843
▁ваньбурен	-11.7843
▁тырӧм	-11.7845
▁куска	-11.785
ава	-11.7852
пукыӵен	-11.7858
▁буйгато	-11.786
ськоз	-11.7869
▁кутскемъёс	-11.7885
▁лулъёс	-11.7915
бамъёсыд	-11.7924
осыд	-11.7926
▁вырӟо	-11.7927
омемын	-11.7932
Ие	-11.7933
▁лыдъясько	-11.7935
орйӧн	-11.7936
▁кури	-11.7937
▁ӝушто	-11.7945
▁бичась	-11.7952
▁визьлыксэ	-11.7958
онын	-11.7961
▁пыргыты	-11.7963
▁Лиза	-11.7966
ъяслӧн	-11.7967
80	-11.798
▁абдрам	-11.7983
▁арми	-11.7987
вӧсяськеме	-11.7988
▁узырмы	-11.7992
Нылпи	-11.7998
мукетъёс	-11.7998
эр	-11.7999
▁сюлм	-11.7999
ылыку	-11.8001
кузпалыз	-11.8002
▁сюремъёссэ	-11.8008
Тода	-11.8009
▁чеберъян	-11.8011
Лэсьт	-11.8042
священник	-11.8042
▁кывкутысьяс	-11.8043
▁азьпала	-11.8048
▁юӧр	-11.8049
иськисько	-11.8052
▁вайылы	-11.8059
▁вӧйпуос	-11.8066
▁сиёнъёсын	-11.807
▁Ла	-11.8083
▁Тыл	-11.8086
▁ортчыку	-11.8087
ьяс	-11.8094
Вераськ	-11.8102
▁артм	-11.8103
▁бине	-11.8111
▁вайӧ	-11.8128
▁миськы	-11.813
▁ёрт	-11.8132
▁вордск	-11.8133
▁уе	-11.8135
▁уждун	-11.8137
▁мувыр	-11.8144
ӧдӧны	-11.8146
▁катьтэммо	-11.8148
Сыл	-11.8149
▁уйзэ	-11.8156
▁сузмытӥ	-11.8159
▁пӧзь	-11.817
▁директорӧ	-11.8178
иськы	-11.8178
▁муртъёсыныз	-11.8187
ъясь	-11.8187
▁пурӟ	-11.8188
поттэм	-11.8193
▁пушъетъёс	-11.8202
тузонлы	-11.8204
улысьтыз	-11.8208
▁виз	-11.823
▁нылъёстэ	-11.8232
▁лёгиськ	-11.824
▁октӥ	-11.8241
Авраамез	-11.8243
Ёр	-11.8244
▁вунэтӥ	-11.8246
▁вӧсяськи	-11.8246
▁лэсьтонэ	-11.8249
▁мертты	-11.825
Шонерлыке	-11.8254
Борддоръёс	-11.8259
еръяс	-11.8264
кумы	-11.8271
▁тӥяло	-11.8283
ӥз	-11.8294
▁зуркан	-11.8295
▁люкетъёс	-11.8303
▁батыр	-11.8303
▁куя	-11.8304
▁лёгась	-11.8309
берлан	-11.8309
Дух	-11.8313
▁ултӥясь	-11.8315
▁висьы	-11.8316
яй	-11.8323
культо	-11.8326
Ӝу	-11.8327
ество	-11.8329
нодъя	-11.8333
тасны	-11.8334
бед	-11.8345
ох	-11.8349
▁виноградпудъёс	-11.8351
йӧзорен	-11.8359
▁вандылэ	-11.8368
▁вераськисько	-11.8375
▁мыдланьтӥ	-11.8375
▁пузъёс	-11.8379
Палкышно	-11.8384
▁тодытэме	-11.8389
▁дугд	-11.8395
рак	-11.84
вӧйыныз	-11.8403
▁петк	-11.8407
ліс	-11.8414
тер	-11.8419
▁вол	-11.8423
▁кышнояськ	-11.8424
▁киулто	-11.8435
▁пановт	-11.8437
Катьтэмм	-11.8439
Кылыны	-11.8443
▁гыре	-11.8446
▁ӧтись	-11.8448
оме	-11.845
лісны	-11.8454
▁даурзэ	-11.8458
▁дэрие	-11.8465
вка	-11.8468
▁пелл	-11.8468
▁изись	-11.8479
▁вежысьӧ	-11.848
ияысь	-11.848
рад	-11.8483
дӥз	-11.8484
▁чук	-11.8487
ывсян	-11.8498
Кыдёкы	-11.8499
▁нимам	-11.8501
тчыны	-11.8502
▁чидасько	-11.8505
▁интыяськы	-11.8518
▁министрлы	-11.852
▁утёнэ	-11.8527
▁данъяськонэ	-11.8531
▁тырытозяз	-11.8533
Батыр	-11.8536
▁пӧрмытӥсько	-11.854
▁вылтӥяське	-11.8541
пушкы	-11.8542
▁куртчыл	-11.8544
▁нуналъёсад	-11.8545
▁гажам	-11.8546
Шы	-11.8548
миз	-11.855
▁Вера	-11.8559
▁лушкась	-11.8563
йӧн	-11.8565
яськон	-11.8569
▁азьтэм	-11.8573
талам	-11.8573
▁Вал	-11.8576
▁кал	-11.858
кур	-11.8581
▁га	-11.8584
▁матысьёсы	-11.8587
▁таркам	-11.8589
Огназ	-11.859
Тушмонъёссэ	-11.859
▁муз	-11.8592
▁вояс	-11.8593
ъят	-11.8595
Дышетскисьёс	-11.8595
ӥське	-11.8598
▁золтэ	-11.8599
чны	-11.8599
▁сэпе	-11.8609
▁безд	-11.8621
▁сьӧлыкад	-11.8622
▁пылат	-11.8626
▁куспы	-11.8631
▁кылдытэ	-11.8633
▁весь	-11.8635
▁мычыса	-11.8649
сюр	-11.8651
▁учкон	-11.8651
▁ыбы	-11.8656
▁лоб	-11.8673
▁бодые	-11.8673
▁борд	-11.8676
▁куронзэ	-11.8683
▁кисьтӥсь	-11.8683
▁пырысь	-11.8692
ӟе	-11.8694
ньӧлзэ	-11.8695
▁организацияясӧ	-11.8707
Пӧ	-11.8708
кошке	-11.872
▁веськӧдлысьӧ	-11.873
ськисьёс	-11.8733
>3	-11.8736
пинь	-11.8737
▁дунзэ	-11.8738
▁гожтӥсь	-11.8739
▁сюды	-11.874
кыдёк	-11.8747
сям	-11.8749
▁сузэр	-11.8751
▁воштӥськ	-11.8757
выжыен	-11.8761
ько	-11.8762
▁пужы	-11.8762
▁кышкатэ	-11.8766
ъяськы	-11.8768
▁некы	-11.8769
Ка	-11.8775
▁нимаськ	-11.8777
▁сэрегъёсы	-11.8779
арам	-11.8785
гозы	-11.8786
Ӧрекч	-11.8788
▁пумитъяське	-11.8796
▁пукисько	-11.8797
▁потӥ	-11.8799
бӧрд	-11.8801
аф	-11.8801
▁ишкалты	-11.8805
▁вормо	-11.8807
Ултӥя	-11.881
▁куштӥськемъёс	-11.8811
валасьтэм	-11.8815
▁кошки	-11.8816
▁участвуйтӧ	-11.8828
Ыжъёст	-11.8831
Юнмат	-11.8835
ъялоз	-11.8836
▁йӧна	-11.8837
▁лякиське	-11.8837
▁оскисьтэм	-11.8838
▁шӧдӥ	-11.8842
▁дышетско	-11.8846
Аттьӧала	-11.8847
▁пыдъёсы	-11.8851
▁пельтэ	-11.8854
▁стан	-11.8855
▁виылӥсь	-11.8855
РС	-11.886
▁Алексе	-11.8867
Малпаськ	-11.8868
▁йылпумъяське	-11.8868
пиосты	-11.8869
>19	-11.887
▁кенеше	-11.8874
▁визьмась	-11.8877
▁пырыос	-11.8882
стр	-11.8886
▁клуб	-11.8891
▁коркаосы	-11.8896
Исаак	-11.8896
кивалтӥсь	-11.8898
▁вайытэ	-11.89
эксэйлык	-11.8905
▁улвай	-11.8909
▁куш	-11.891
▁оски	-11.8913
ымъёссы	-11.8913
▁ӝуштэ	-11.8919
▁каньыллыке	-11.8924
эскеры	-11.8925
духе	-11.8925
тыршиз	-11.8932
цияяс	-11.8932
Стаханов	-11.894
Дугды	-11.8942
эскери	-11.8945
синъёсме	-11.8945
пы	-11.895
▁жадьы	-11.8955
тылобурдо	-11.8955
учкы	-11.8956
берга	-11.8957
лекъяськыса	-11.8958
кышно	-11.8961
куашкатэм	-11.8962
кылыныз	-11.8965
чигиськон	-11.8967
▁ожгарчи	-11.8967
▁шугъяськ	-11.8968
парсь	-11.8969
Иссахар	-11.8969
бугыръяськыса	-11.8969
ӝожомы	-11.8969
укноос	-11.8969
Рама	-11.897
Никола	-11.897
лушкаськон	-11.897
ски	-11.8972
талась	-11.8977
вырӟы	-11.8979
синлысъёс	-11.8979
кисьмам	-11.898
Вазь	-11.898
Ортч	-11.898
ивортӥсь	-11.898
иськомы	-11.898
быдэ	-11.8982
йырсие	-11.8982
Рабсак	-11.8983
Газа	-11.8983
Сосногорск	-11.8983
мирра	-11.8983
шулдыр	-11.8983
бӧрдӥсьёс	-11.8983
куштӥськон	-11.8984
тэрытскись	-11.8984
тушмонъёслэн	-11.8984
▁куроз	-11.8984
Асир	-11.8984
шибоды	-11.8984
лимлэн	-11.8985
чилясь	-11.8986
Кер	-11.8986
куашкатон	-11.8986
утись	-11.8986
жаль	-11.8986
тушмонъёсмы	-11.8987
сисьмон	-11.8987
айтан	-11.8987
Ниневия	-11.8987
Валтасар	-11.8987
Айму	-11.8987
кузёяськись	-11.8988
▁сии	-11.8988
пань	-11.8988
кудӟем	-11.8988
суббота	-11.8989
лёг	-11.8989
Кармил	-11.8989
Ахаз	-11.8989
Кидар	-11.899
гужем	-11.899
Фамарь	-11.899
чигиськыса	-11.899
сапта	-11.899
▁урдскем	-11.899
тодытэ	-11.899
азьветлӥсьёсыз	-11.899
валес	-11.899
канжаськон	-11.899
▁быръемъёс	-11.8991
ӧжыт	-11.8991
Атаймы	-11.8991
вылтӥяськонэз	-11.8991
страна	-11.8991
быры	-11.8991
мозмытскон	-11.8992
сайка	-11.8992
быдтӥсь	-11.8992
венец	-11.8992
ӝутӥське	-11.8992
сюлворыса	-11.8992
Лёнька	-11.8992
куспа	-11.8992
ӝыт	-11.8992
липет	-11.8993
инбам	-11.8993
паськыт	-11.8993
пиштӥсь	-11.8993
огназ	-11.8993
Иеремия	-11.8993
ярантэм	-11.8993
огкылысь	-11.8993
учке	-11.8993
пуктон	-11.8993
эрик	-11.8994
пуктэм	-11.8994
сульдэръёссы	-11.8994
▁тупатэ	-11.8994
ортчыт	-11.8994
сизьым	-11.8994
данъяса	-11.8994
каньылэн	-11.8994
писпуэз	-11.8994
пайда	-11.8994
тодӥсько	-11.8994
атайёссы	-11.8994
нимыд	-11.8995
ожмаськись	-11.8995
ӧжытак	-11.8995
возьмасьёс	-11.8995
пень	-11.8995
кышкан	-11.8995
зэмлыкед	-11.8995
улӥсьёс	-11.8995
кельтэ	-11.8996
горшок	-11.8996
▁чиля	-11.8996
чус	-11.8997
бӧрдон	-11.8997
милемын	-11.8997
▁кӧттыр	-11.8997
▁синме	-11.8997
аслым	-11.8997
валче	-11.8997
▁куашето	-11.8997
улӥсьёсыз	-11.8998
▁искусств	-11.8998
кырыж	-11.8998
изкаръёс	-11.8999
ултӥяса	-11.8999
собере	-11.8999
бырисьтэм	-11.9
▁туби	-11.9
Павел	-11.9
юртысьтыз	-11.9001
Васанысь	-11.9001
данъян	-11.9001
атайёсты	-11.9001
Аран	-11.9001
сюлмазы	-11.9002
пудоос	-11.9003
▁чигиське	-11.9003
▁ыстыл	-11.9003
Ваньмы	-11.9005
▁таркасьёс	-11.9005
▁стаханов	-11.9005
▁ӝуждала	-11.9006
куалекъяса	-11.9007
асьсэос	-11.9007
бадӟымесь	-11.9008
ужаса	-11.9009
эскерыны	-11.9009
▁бырйы	-11.901
нылъёс	-11.9011
▁кенжы	-11.9011
дугдылытэк	-11.9012
кужмоесь	-11.9012
шонерлыктэ	-11.9013
▁ыштэ	-11.9013
▁ватӥ	-11.9014
чаклалэ	-11.9015
куаразэ	-11.9015
Тит	-11.9015
▁шед	-11.9016
вожпотонэд	-11.9017
вылькен	-11.902
ымнырдэ	-11.9021
азвесен	-11.9021
▁куриське	-11.9022
эскерем	-11.9024
шуыса	-11.9024
дчис	-11.9025
Сьӧлыкъёс	-11.9025
Возьмаськись	-11.9026
▁дзонь	-11.9028
▁кылӥсь	-11.903
95	-11.9031
▁эмеспи	-11.9031
▁карылӥ	-11.9032
тыршисько	-11.9032
зэмлыко	-11.9033
▁мурдала	-11.9033
▁Озия	-11.9033
сьӧлыкъёссы	-11.9034
лушкаськ	-11.9034
Мериваы	-11.9035
▁шылад	-11.9037
ляльчиосы	-11.9037
▁кок	-11.9038
Фема	-11.9038
орас	-11.9039
▁куректӥсь	-11.904
▁дышиз	-11.904
вожпотонэз	-11.904
няньдэ	-11.904
Сюлмыныз	-11.9042
▁Утисе	-11.9042
▁опера	-11.9043
кӧтыз	-11.9043
▁организация	-11.9043
▁история	-11.9044
▁выдӥз	-11.9044
Амослэн	-11.9044
▁арало	-11.9044
городэз	-11.9045
▁сэрпалты	-11.9045
гурезьёстӥ	-11.9045
▁усьтӥськи	-11.9045
Вӧсяськись	-11.9045
синмыныз	-11.9046
Ассирияысь	-11.9046
данэн	-11.9046
▁зон	-11.9046
катьтэммем	-11.9046
▁тырмытӥз	-11.9047
▁бат	-11.9047
▁люкиз	-11.9048
▁данэныз	-11.9049
▁мугорыныз	-11.905
тивнӧ	-11.905
спорт	-11.905
▁бичало	-11.905
▁ворми	-11.905
▁куректы	-11.905
бечеос	-11.9051
пертч	-11.9051
▁усьтӥське	-11.9052
куанеръёсты	-11.9053
имысь	-11.9053
▁Антиохия	-11.9053
▁кион	-11.9054
Ачим	-11.9054
вылӥе	-11.9054
▁Моисее	-11.9054
▁лулпуш	-11.9054
▁висьтав	-11.9056
калыктэм	-11.9056
▁шедӧд	-11.9057
▁сульдэръёсыныз	-11.9057
▁сьыл	-11.9057
▁возьматӥськод	-11.9057
вынзэ	-11.9057
кужымез	-11.9057
мумы	-11.9058
▁висьталіс	-11.9058
▁вӧсяськиз	-11.9059
▁лошъясько	-11.9059
тодмоосы	-11.9059
▁шуныт	-11.9059
эксэйлыкъёс	-11.906
вожзэ	-11.906
82	-11.906
▁пери	-11.9061
▁поттылӥз	-11.9061
▁каргало	-11.9062
Шулдыръяськы	-11.9062
▁Мисаил	-11.9063
▁ӧпкел	-11.9063
▁урдӥсько	-11.9063
▁викышъяло	-11.9064
▁бок	-11.9065
▁творчес	-11.9065
▁колан	-11.9066
Котьку	-11.9066
▁ватоз	-11.9066
асъяс	-11.9066
▁юкл	-11.9067
▁йырвандӥсь	-11.9067
▁тӧлъёс	-11.9067
▁эскерись	-11.9067
ӧйяс	-11.9068
▁пре	-11.9068
▁быгатӥз	-11.9069
визьлыкез	-11.9069
▁чӧж	-11.907
▁таркасько	-11.907
Тямыс	-11.907
ультура	-11.9071
▁дзоньта	-11.9071
▁киултэ	-11.9071
сюлмысь	-11.9072
▁гон	-11.9072
возьмаса	-11.9072
▁пуртыос	-11.9072
▁вайылӥз	-11.9072
▁здание	-11.9072
окчи	-11.9072
▁ыджда	-11.9072
▁крезьгур	-11.9073
уатетӥ	-11.9073
▁куалектэ	-11.9074
%	-11.9075
евиафан	-11.9075
▁велӧдысь	-11.9075
▁письмӧ	-11.9075
Став	-11.9075
▁киулысь	-11.9076
▁кылисько	-11.9076
тысьӧм	-11.9076
ӟым	-11.9076
адок	-11.9076
иавол	-11.9076
ньӧр	-11.9076
ескыт	-11.9076
▁вермӧ	-11.9076
Зӥ	-11.9076
▁Федера	-11.9076
▁Фамар	-11.9076
кономика	-11.9076
▁театр	-11.9077
▁суто	-11.9077
екрет	-11.9077
ъюгыд	-11.9077
▁валэктӥз	-11.9077
▁куштӥськиды	-11.9077
Авва	-11.9077
▁сузмытъя	-11.9077
Пазьг	-11.9077
Уллё	-11.9077
бследуйт	-11.9077
кибыос	-11.9077
нырпасьёс	-11.9077
худож	-11.9077
▁Иефонний	-11.9077
▁заседание	-11.9077
▁земляк	-11.9077
▁зільӧмысь	-11.9077
▁общественн	-11.9077
▁тротуар	-11.9077
▁тунсыкъяськ	-11.9077
▁турттӥз	-11.9077
▁янгышаськоды	-11.9077
Витетӥ	-11.9077
Дугдэ	-11.9077
Жильы	-11.9077
Кузёяськисьёс	-11.9077
Кунянъёс	-11.9077
Кураськисез	-11.9077
Кышкыт	-11.9077
Оронаим	-11.9077
Паллян	-11.9077
Престол	-11.9077
Регыд	-11.9077
Росте	-11.9077
Сизьыметӥ	-11.9077
Сэки	-11.9077
Сёян	-11.9077
Сійӧ	-11.9077
Усинск	-11.9077
Фегор	-11.9077
Чилимдін	-11.9077
Шузи	-11.9077
Янгыше	-11.9077
амперсъяс	-11.9077
ационнӧ	-11.9077
кӧшкемыт	-11.9077
участк	-11.9077
хом	-11.9077
▁Авель	-11.9077
▁Варак	-11.9077
▁Витал	-11.9077
▁Вяльбе	-11.9077
▁Девора	-11.9077
▁Дишан	-11.9077
▁Елеазар	-11.9077
▁Есром	-11.9077
▁Зерах	-11.9077
▁Иеглом	-11.9077
▁Иродиада	-11.9077
▁Овид	-11.9077
▁Ривла	-11.9077
▁СЛПК	-11.9077
▁Сыктывдін	-11.9077
▁ЦВК	-11.9077
▁Шовал	-11.9077
▁Эскерись	-11.9077
▁Эцер	-11.9077
▁архитектура	-11.9077
▁бӧльмы	-11.9077
▁висказ	-11.9077
▁вылтӥяськисесь	-11.9077
▁динарий	-11.9077
▁друг	-11.9077
▁жыръяс	-11.9077
▁звено	-11.9077
▁здук	-11.9077
▁картупель	-11.9077
▁кафеяс	-11.9077
▁кенжиз	-11.9077
▁компенсируйт	-11.9077
▁корпорация	-11.9077
▁кужанлун	-11.9077
▁куӵо	-11.9077
▁кырымпас	-11.9077
▁кышкатскы	-11.9077
▁кӧрык	-11.9077
▁лючки	-11.9077
▁лӧпкытъя	-11.9077
▁лӧпкытӥ	-11.9077
▁нюлозы	-11.9077
▁обласьт	-11.9077
▁огпол	-11.9077
▁подулӧн	-11.9077
▁пример	-11.9077
▁синпӧет	-11.9077
▁смирна	-11.9077
▁сьӧдэкм	-11.9077
▁сэтч	-11.9077
▁сюпсе	-11.9077
▁сёрнитчӧм	-11.9077
▁токма	-11.9077
▁тӧдчанлунсӧ	-11.9077
▁шапка	-11.9077
▁шуккиз	-11.9077
▁щӧткаяс	-11.9077
▁электро	-11.9077
▁энергоузел	-11.9077
▁ӝокаты	-11.9077
▁ӧтиськемъёс	-11.9077
▁ӵыжатыны	-11.9077
Куинетӥ	-11.9077
Палаш	-11.9077
омпозиторъяс	-11.9077
тылгизьы	-11.9077
ёрнигижӧд	-11.9077
▁Вирсавия	-11.9077
▁Иеус	-11.9077
▁Илия	-11.9077
▁Сеннаар	-11.9077
▁ФАП	-11.9077
▁гражданин	-11.9077
▁мичлун	-11.9077
▁сертификат	-11.9077
▁сӥньыс	-11.9077
▁удалтӥсь	-11.9077
Тырмоз	-11.9077
Хозя	-11.9077
къямыс	-11.9077
сускиче	-11.9077
▁Булатов	-11.9077
▁Валерьев	-11.9077
▁ЛПК	-11.9077
▁Непорожний	-11.9077
▁Хус	-11.9077
▁анайёссы	-11.9077
▁бырттылэмын	-11.9077
▁визьтэммозы	-11.9077
▁вииды	-11.9077
▁вылтусыз	-11.9077
▁доктор	-11.9077
▁могӟет	-11.9077
▁пилиськы	-11.9077
▁погылляськ	-11.9077
▁Наассон	-11.9077
▁ПЦР	-11.9077
▁висьмис	-11.9077
▁вордос	-11.9077
▁педло	-11.9077
▁уксус	-11.9077
▁укшатоды	-11.9077
▁шокчо	-11.9077
▁югъял	-11.9077
▁ӝокатэ	-11.9077
Автомашинаяс	-11.9077
Ошмес	-11.9077
Тэльмыр	-11.9077
▁Анафоф	-11.9077
▁Конакова	-11.9077
▁Сӥсарал	-11.9077
▁баръяс	-11.9077
▁мыкырто	-11.9077
▁мӧвп	-11.9077
▁нырысез	-11.9077
▁палэнскид	-11.9077
▁поэт	-11.9077
▁право	-11.9077
Асыввыв	-11.9077
Пуксё	-11.9077
▁гогы	-11.9077
▁кӧдэкт	-11.9077
мискинь	-11.9077
▁арыкъёс	-11.9077
▁удалтоз	-11.9077
Лахисы	-11.9077
лулӟылӥське	-11.9077
▁матыстч	-11.9077
▁экология	-11.9077
Геолог	-11.9077
агистраль	-11.9077
▁гылыт	-11.9077
▁крезен	-11.9077
▁кыниллям	-11.9077
▁маял	-11.9077
▁посолъёс	-11.9077
▁янгышало	-11.9077
пеликан	-11.9077
▁сигӧрт	-11.9077
Валери	-11.9077
Палэнске	-11.9077
Учкисько	-11.9077
▁Иаиль	-11.9077
▁хоррейёслэн	-11.9077
▁вандӥськемъёс	-11.9077
▁зӥбломыты	-11.9077
▁чужанін	-11.9077
Курадӟыт	-11.9077
▁тэрмась	-11.9077
▁волятэмын	-11.9077
Лушкемлыкез	-11.9077
▁декадн	-11.9077
лтарь	-11.9077
▁шуласа	-11.9077
▁видзчысян	-11.9077
▁диверсифицируйт	-11.9077
Шектэм	-11.9077
▁вашкалаослы	-11.9077
▁орчч	-11.9077
веднаськ	-11.9077
чайник	-11.9077
▁Нафан	-11.9077
▁фото	-11.9077
▁кокни	-11.9077
▁кулӥськомы	-11.9077
▁лыддьы	-11.9077
▁умоен	-11.9077
Кураськись	-11.9077
▁Урия	-11.9077
▁сэртт	-11.9077
▁гарантия	-11.9077
▁енби	-11.9077
наци	-11.9077
▁вырты	-11.9077
▁Нест	-11.9077
▁шайпулъёссы	-11.9077
▁нюръяськисьёс	-11.9077
бель	-11.9077
▁Сажин	-11.9077
▁бурсӥсь	-11.9077
▁ӟардыку	-11.9077
▁штемпел	-11.9077
Салам	-11.9077
▁бускельёсыз	-11.9077
Плен	-11.9077
▁агаед	-11.9077
▁юскиськоз	-11.9077
▁Улӥсез	-11.9077
валэктэм	-11.9077
Лушкаськисьёс	-11.9077
▁Иоах	-11.9077
▁йыртыш	-11.9077
Быри	-11.9077
▁местит	-11.9077
▁веськрес	-11.9077
▁жади	-11.9077
▁лача	-11.9077
ськовт	-11.9077
▁долка	-11.9077
▁изёд	-11.9077
▁паспортъяс	-11.9077
▁тупатъя	-11.9077
▁басмаосын	-11.9077
Турын	-11.9077
▁ӵушемын	-11.9077
Бурпала	-11.9077
▁ӧръяло	-11.9077
очёт	-11.9077
▁казявны	-11.9077
▁гудо	-11.9077
▁синъяснас	-11.9077
Куалект	-11.9077
▁ядо	-11.9077
▁ӵуж	-11.9077
▁чабозы	-11.9077
▁веттаськ	-11.9077
тӧлпо	-11.9077
▁лунъясӧ	-11.9077
▁тышкаськизы	-11.9078
▁ворсаллязы	-11.9078
▁ӵушиськозы	-11.9078
▁куриськиз	-11.9078
▁ӟоз	-11.9078
▁сутӥськем	-11.9078
▁кӧсйис	-11.9078
▁куйл	-11.9078
▁ньӧбӧм	-11.9078
▁визьмочиос	-11.9078
вуремын	-11.9078
▁куасьты	-11.9078
▁шедьтӥськы	-11.9078
▁нодтэмесь	-11.9078
▁корсян	-11.9078
▁Вооз	-11.9078
▁юнматӥсько	-11.9078
▁Геннадьев	-11.9078
▁быдтытозям	-11.9078
▁мышкин	-11.9078
рантъяс	-11.9078
▁шерем	-11.9078
▁леч	-11.9078
▁ырк	-11.9078
Карга	-11.9078
▁гудӟизы	-11.9078
▁заводитчиг	-11.9078
▁думышт	-11.9078
▁паськӧм	-11.9078
▁саптаськиз	-11.9078
▁сюсьтыл	-11.9078
ырьё	-11.9078
▁сандали	-11.9078
▁чурытомытэ	-11.9078
▁пӧзе	-11.9078
Хамос	-11.9078
микро	-11.9078
нюръяськыны	-11.9078
▁перйӧм	-11.9078
▁пылатоз	-11.9078
▁йырйиз	-11.9079
▁сӧвмыны	-11.9079
▁чу	-11.9079
▁бутыл	-11.9079
▁видзасъяс	-11.9079
▁лекомытэ	-11.9079
▁сёр	-11.9079
▁пушъем	-11.9079
аист	-11.9079
есласян	-11.9079
▁вужмем	-11.9079
▁нылкышно	-11.9079
▁веръян	-11.9079
▁тӧлӟи	-11.9079
▁гожтӥськемез	-11.9079
Левиафан	-11.9079
▁куашетӥ	-11.9079
▁жугизы	-11.9079
▁водзмӧстчӧмсӧ	-11.9079
▁Вифани	-11.9079
▁Оси	-11.9079
▁миллион	-11.9079
▁чӧлтыса	-11.9079
▁палькко	-11.9079
ётка	-11.9079
▁бурмоз	-11.9079
▁чузъяське	-11.9079
▁шедиз	-11.9079
▁лицей	-11.9079
▁петкӧдлысьяс	-11.9079
▁вожвылъяськ	-11.9079
Водз	-11.908
▁дук	-11.908
▁миртапу	-11.908
▁отсалӧм	-11.908
▁нюжӧдӧм	-11.908
▁участвуйтысь	-11.908
сюлмыным	-11.908
▁Варахия	-11.908
▁Мол	-11.908
Косон	-11.908
ичие	-11.908
духов	-11.908
▁интыяськоз	-11.908
▁больничаяс	-11.908
▁пуктӧны	-11.908
▁кувсис	-11.908
▁кисьтылӥзы	-11.908
▁топыд	-11.908
▁Ниневияе	-11.908
▁гортын	-11.908
▁вожъяськон	-11.908
▁тылсиос	-11.908
▁пумисько	-11.9081
▁топаз	-11.9081
▁Иаре	-11.9081
▁ставкаяс	-11.9081
▁кенешизы	-11.9081
▁поттӥллям	-11.9081
Алекъяськон	-11.9081
Ачы	-11.9081
▁юрттӥське	-11.9081
▁тыриськон	-11.9081
▁эксэеныз	-11.9081
▁салон	-11.9081
▁больничаясӧ	-11.9081
▁бурсэмез	-11.9081
Уродлык	-11.9081
▁йылъёсысь	-11.9081
▁Понт	-11.9081
▁пӧрмемын	-11.9081
жалянэ	-11.9081
▁картэз	-11.9081
шибодыоссы	-11.9081
▁шедьытъя	-11.9081
▁чеберъяськод	-11.9081
Исааклэн	-11.9081
▁петкӧдлісны	-11.9081
▁сяськаяськ	-11.9082
▁пыдйылчиосты	-11.9082
▁ченгешыны	-11.9082
▁матысе	-11.9082
▁усыя	-11.9082
▁стол	-11.9082
Буйгат	-11.9082
▁куанермоз	-11.9082
▁праздникъёстэс	-11.9082
▁черектӥськы	-11.9082
Янгыштэм	-11.9082
кров	-11.9082
▁выльдӥсько	-11.9083
даллашонъёс	-11.9083
▁йывсьыс	-11.9083
атура	-11.9083
▁тупатӥз	-11.9083
▁туялӧм	-11.9083
ыштал	-11.9083
▁стрӧитан	-11.9083
▁эзеле	-11.9083
▁лякытэсь	-11.9083
▁вичмӧдӧм	-11.9083
▁кӧсйӧмсӧ	-11.9083
иръяс	-11.9083
▁дуноесьгес	-11.9083
▁шумпотӥмы	-11.9084
▁ӧдъяло	-11.9084
▁разь	-11.9084
иника	-11.9084
▁ӟечкылалэ	-11.9084
▁куасалляськ	-11.9084
▁тодыты	-11.9084
▁гайтанэз	-11.9084
▁юнмаз	-11.9084
▁Гиваын	-11.9084
▁нюръяськыса	-11.9084
▁шекъёссэс	-11.9084
▁киостэ	-11.9084
▁ёрмисьёс	-11.9085
▁йырсиосыд	-11.9085
▁Ныл	-11.9085
▁ултӥяло	-11.9085
Визяса	-11.9085
▁вунэтӥськод	-11.9085
▁абдразы	-11.9085
▁вӧлдӥськод	-11.9085
▁каргалэ	-11.9085
▁шудэлэ	-11.9085
▁карисез	-11.9085
▁пукал	-11.9085
▁йылэтӥд	-11.9085
▁йыромыто	-11.9085
вуэм	-11.9086
▁погыртӥськод	-11.9086
▁шорад	-11.9086
▁дыръёсам	-11.9086
▁лыктылозы	-11.9086
▁начальникӧс	-11.9086
Асор	-11.9086
▁прӧ	-11.9086
▁ӝокатозы	-11.9086
▁тыршиськомы	-11.9086
▁чӧлтӥзы	-11.9086
▁сокез	-11.9086
▁вормись	-11.9086
▁абдралозы	-11.9086
▁адӟылозы	-11.9086
▁синмаськыса	-11.9086
▁ӧкыны	-11.9086
▁сылмозы	-11.9087
▁шымыртӥзы	-11.9087
▁пилемозь	-11.9087
▁пуксён	-11.9087
▁22	-11.9087
▁юалӧмъяссӧ	-11.9087
валанэныз	-11.9087
Мыйла	-11.9087
▁перй	-11.9087
Номыр	-11.9087
▁инмарезлэн	-11.9087
▁буйгатӥз	-11.9087
▁тодэменыз	-11.9087
▁кылӥсьтэм	-11.9087
▁керкаяс	-11.9088
▁жугозы	-11.9088
▁буртор	-11.9088
▁лулӟылы	-11.9088
▁паста	-11.9088
▁ултӥяськоды	-11.9088
сылӥсь	-11.9088
▁гӧгӧрвоӧдісны	-11.9088
▁данъяськисько	-11.9088
Ком	-11.9089
▁иворчи	-11.9089
▁тырмоз	-11.9089
▁интыысеныд	-11.9089
▁пуксёнэз	-11.9089
▁быгатӥмы	-11.9089
Синъёсыд	-11.9089
▁могсӧ	-11.909
▁шаплыесьгес	-11.909
▁ожгарчиен	-11.909
▁стрӧитӧмсӧ	-11.909
▁ужаськомы	-11.909
▁сан	-11.909
▁йыбырттэлэ	-11.909
ица	-11.909
Кулэ	-11.909
▁пальккаськ	-11.909
▁юиськоды	-11.909
▁шумпотылӥзы	-11.9091
▁кыстӥськоз	-11.9091
▁эсэпла	-11.9091
Пелля	-11.9091
▁кышноеныд	-11.9091
▁судъёс	-11.9091
▁либат	-11.9091
▁узырмытэ	-11.9091
▁юртэныз	-11.9091
▁позьӧ	-11.9091
кулэм	-11.9092
Конс	-11.9092
группаяс	-11.9092
▁куашкало	-11.9092
▁урдэс	-11.9092
Атайёсмы	-11.9092
▁пумитаны	-11.9092
▁сиесэз	-11.9092
▁зӧкта	-11.9092
▁тулкымъёсыд	-11.9092
▁жильыетаз	-11.9092
Офир	-11.9093
▁луымтэен	-11.9093
Вӧр	-11.9093
▁санатор	-11.9093
Улляс	-11.9093
▁Кылдытӥсьтэ	-11.9093
▁Галилеяе	-11.9093
Азэм	-11.9093
▁люкта	-11.9094
▁ныв	-11.9094
▁викышъялозы	-11.9094
▁выныс	-11.9094
Кошке	-11.9094
лэсянтэм	-11.9094
крит	-11.9094
огмы	-11.9094
жда	-11.9095
▁инӧдъяссӧ	-11.9095
▁косытэк	-11.9095
▁уробооссы	-11.9095
ужем	-11.9095
▁участвуйтіс	-11.9095
▁абдраса	-11.9095
▁пиштӥ	-11.9095
▁сиське	-11.9095
▁пельтӥз	-11.9095
бырйылӥ	-11.9095
▁визьемъёс	-11.9095
▁быдӟа	-11.9095
▁йылад	-11.9095
▁вайытозь	-11.9095
▁Кылдытӥсьсэ	-11.9096
▁висьталісны	-11.9096
▁шие	-11.9096
▁вузӧс	-11.9096
▁вераллямы	-11.9096
▁коралэ	-11.9096
Реце	-11.9096
▁выдэ	-11.9096
▁кутылозы	-11.9096
▁кылимы	-11.9097
▁Адд	-11.9097
сюлэмды	-11.9097
▁ӧсъёссы	-11.9097
▁возъяз	-11.9097
▁визьнодоесь	-11.9097
▁кариллям	-11.9097
▁пыргытыны	-11.9097
гдолы	-11.9097
▁кузьгес	-11.9097
▁ужасьёсыз	-11.9097
▁кырмиськ	-11.9097
▁виисьёс	-11.9097
Атайёсты	-11.9097
▁медвод	-11.9098
▁ӝожтӥськыса	-11.9098
▁Лотан	-11.9099
▁Ароер	-11.9099
▁Небыт	-11.9099
▁президент	-11.9099
▁Иеровоам	-11.9099
▁Самуил	-11.9099
▁Сокхоф	-11.9099
▁пиштонэз	-11.9099
▁квайт	-11.9099
▁колодча	-11.9099
▁Сэзь	-11.9099
▁Хелкиялэ	-11.9099
▁Судья	-11.9099
▁концерт	-11.9099
▁экс	-11.9099
▁Дивон	-11.9099
▁октон	-11.9099
▁тунаськон	-11.9099
▁Онан	-11.9099
калты	-11.9099
▁горно	-11.9099
▁пыкъяськон	-11.9099
▁11	-11.9099
▁косэмезъя	-11.9099
▁киям	-11.91
▁ватӥсь	-11.91
▁Ветл	-11.91
▁АК	-11.91
▁Арам	-11.91
▁дэраен	-11.91
▁ишакпи	-11.91
▁дӥсяз	-11.91
▁сылӥськод	-11.91
▁выльмӧдӧм	-11.91
чеберлык	-11.91
▁Викторов	-11.91
▁юытэк	-11.91
▁чуръёс	-11.91
▁малпанэ	-11.9101
▁ваяс	-11.9101
ряд	-11.9101
▁юклӧм	-11.9101
▁кулэлыкез	-11.9101
▁ӵота	-11.9101
ӧртэм	-11.9101
▁кӧйынызы	-11.9101
▁вазиськелэ	-11.9101
▁бышка	-11.9102
Визьма	-11.9102
▁нуиськод	-11.9102
Кӧл	-11.9102
▁напра	-11.9102
▁тусьтые	-11.9103
▁вайылозы	-11.9103
кача	-11.9103
▁пиштэ	-11.9103
▁вунэтэм	-11.9103
▁ваньлыкты	-11.9103
▁видзӧдны	-11.9103
▁ыштӥзы	-11.9103
Адӟиськоды	-11.9103
сантэмасьёслэ	-11.9104
▁уллёед	-11.9104
▁поттыкум	-11.9104
▁армиез	-11.9104
▁шедьтӥмы	-11.9104
▁визьлыкеныд	-11.9104
▁яр	-11.9104
Кый	-11.9105
▁кышкамтэ	-11.9105
▁удит	-11.9105
▁мургес	-11.9105
бырод	-11.9105
▁шорем	-11.9105
▁эй	-11.9105
▁басьтӥсьёсыз	-11.9105
▁вайёсаз	-11.9105
▁йылӥзы	-11.9105
Бусые	-11.9106
▁Усьтӥсь	-11.9106
▁узырми	-11.9106
▁вошъяськисьтэм	-11.9106
▁избур	-11.9106
▁ыстылӥз	-11.9106
▁лыжникъяс	-11.9106
▁овны	-11.9106
▁вунэтоз	-11.9107
ртмӧдчӧм	-11.9107
▁ивортылозы	-11.9107
Арнон	-11.9107
▁кылзӥськизы	-11.9107
Кол	-11.9107
▁районъясын	-11.9107
крас	-11.9108
▁лёгалэ	-11.9108
▁пытсаз	-11.9108
▁талалоз	-11.9108
▁кылдытоз	-11.9108
▁пумысьтыз	-11.9108
▁услугаясӧн	-11.9108
▁кварц	-11.9108
▁Ааронэз	-11.9108
▁ышемын	-11.9108
▁золтӥзы	-11.9109
▁сапталэ	-11.9109
▁сюрымтэ	-11.9109
▁зумыдлун	-11.9109
рччан	-11.9109
▁данъяськонзы	-11.9109
▁утисез	-11.911
▁усьылӥсь	-11.911
▁лыдъялэ	-11.911
▁петкӧдлӧм	-11.911
▁нылпиосыд	-11.911
▁узырмон	-11.911
▁арбериоссэ	-11.911
▁кунъёс	-11.911
▁кудӟытозяз	-11.9111
▁эркияса	-11.9111
▁ковчегез	-11.9111
▁вераськонъёсты	-11.9111
▁пеле	-11.9111
▁сюрло	-11.9112
▁уродлыксы	-11.9112
▁кӧё	-11.9112
▁стрӧитны	-11.9112
▁судьяосты	-11.9112
▁ужалэ	-11.9112
▁вурыс	-11.9112
▁шулдыртэ	-11.9112
▁мынӥд	-11.9113
▁ӟечлыкеныз	-11.9113
▁гордэктоз	-11.9113
▁синйылты	-11.9113
▁кышкатӥзы	-11.9113
▁пылатӥсько	-11.9113
▁куашетон	-11.9113
▁вунэтэмын	-11.9114
▁визьлыкоесь	-11.9114
▁сосудъёсты	-11.9114
▁ышӧдӧ	-11.9114
▁чигиськем	-11.9115
▁шукы	-11.9115
▁кортна	-11.9116
▁нюръяськиз	-11.9116
нытӧ	-11.9116
▁Кылдытӥсе	-11.9116
▁валалоды	-11.9116
▁ужатэ	-11.9116
▁пӧлам	-11.9116
▁дугдылэ	-11.9117
▁Израиле	-11.9117
▁лякиськи	-11.9117
▁тодмалозы	-11.9117
▁Войвы	-11.9118
▁мадёнъёсыз	-11.9118
▁вайытон	-11.9118
▁буйгатон	-11.9119
▁усёды	-11.9119
▁серекъялоз	-11.9119
▁Рос	-11.9119
▁вис	-11.9119
▁изьыяд	-11.9119
▁вазиськылэ	-11.9119
▁йитӧдын	-11.9119
▁кыткем	-11.912
▁духсы	-11.912
▁тыршоме	-11.912
▁дышизы	-11.9121
▁визьмолык	-11.9121
▁Моисеез	-11.9121
левпиос	-11.9121
ошмес	-11.9121
▁ушъяськисько	-11.9122
▁пӧлысен	-11.9122
сьӧлыке	-11.9122
▁ӝуатыса	-11.9122
Йӧ	-11.9122
▁специалистлы	-11.9122
▁кылзо	-11.9123
▁кивалтозы	-11.9123
▁люкизы	-11.9123
▁йыбыртъялозы	-11.9123
▁сьӧлтасько	-11.9123
▁Эксэед	-11.9123
▁быгатӥд	-11.9123
▁сётӥсед	-11.9123
▁азвесьсэс	-11.9123
Уна	-11.9124
▁усы	-11.9124
▁тырмытӥзы	-11.9124
▁арбериоссэс	-11.9124
▁кельтӥськод	-11.9124
▁люкеттэ	-11.9124
Сюрс	-11.9125
▁вӧля	-11.9125
алдаськ	-11.9125
▁висёнэ	-11.9125
▁пачылмем	-11.9125
▁ултӥямъёсты	-11.9125
>201	-11.9126
аваддон	-11.9126
Халдейёс	-11.9126
▁виемъёс	-11.9126
▁сьӧлыкась	-11.9127
4)	-11.9127
▁уськытоз	-11.9127
▁тырытэк	-11.9128
▁сьӧлтэтъёсыз	-11.9128
▁черен	-11.9128
иськон	-11.9128
▁вераськисьёсты	-11.9128
улэ	-11.9128
▁йӧлэз	-11.9128
▁йыръёссы	-11.9128
▁сямдэ	-11.9129
▁тыршисько	-11.9129
▁юртъёсазы	-11.913
▁фимиамен	-11.913
▁сюроно	-11.9131
▁пыдъёсыд	-11.9131
▁Гоморраез	-11.9131
▁вузамын	-11.9131
▁пыдыныз	-11.9131
▁сюлмысьтыд	-11.9131
▁сэрпалтӥзы	-11.9132
▁мертэтэз	-11.9132
▁ышы	-11.9132
▁джын	-11.9132
▁миро	-11.9132
▁тубоме	-11.9132
▁вӧен	-11.9133
▁миське	-11.9134
▁кидыстэ	-11.9134
▁уробоосты	-11.9134
▁кожисьёс	-11.9135
Котьмарл	-11.9135
▁думайт	-11.9135
▁орсмоз	-11.9135
▁инфраструктура	-11.9135
▁сӧре	-11.9135
▁кесяз	-11.9135
▁чигтыл	-11.9136
Кут	-11.9136
▁ватозы	-11.9136
▁Иазер	-11.9136
▁нальык	-11.9137
▁бертоз	-11.9137
▁барс	-11.9137
▁вӧсяськизы	-11.9137
▁сьӧлыкалэ	-11.9137
▁Хел	-11.9137
▁тест	-11.9137
▁вузыса	-11.9137
▁сӥзиськиз	-11.9137
▁возьматӥды	-11.9137
▁ышизы	-11.9137
Законэд	-11.9137
▁усьтӥд	-11.9137
▁каръёсыд	-11.9138
▁Шар	-11.9138
▁кутскиськод	-11.9139
▁шудбур	-11.9139
▁вераськемзэ	-11.9139
▁вежӧм	-11.914
влӧм	-11.914
▁шобырскизы	-11.914
Уйпалас	-11.914
▁йыръе	-11.914
го	-11.914
▁бурдо	-11.914
28	-11.9141
▁пересьёсты	-11.9141
▁керпот	-11.9141
▁атайзылэсь	-11.9141
▁пыдынызы	-11.9142
▁падвожъёсын	-11.9142
▁шедьытэм	-11.9142
▁ваньбурдэс	-11.9142
▁пӧяськись	-11.9142
▁быръемъёсыз	-11.9143
▁кизисьёс	-11.9143
▁урдӥськ	-11.9143
▁ивортомы	-11.9143
▁Духеныз	-11.9144
▁пила	-11.9144
ияын	-11.9144
▁шуръёссэ	-11.9144
▁ӧтемын	-11.9144
▁султытоз	-11.9145
▁кескичлыкез	-11.9145
▁валесме	-11.9146
▁пуксёзы	-11.9146
▁буйгатсконзэ	-11.9147
Киыд	-11.9147
▁дасяськон	-11.9147
▁чигназы	-11.9147
▁костаськыса	-11.9147
▁кизилизэ	-11.9147
ляторъяс	-11.9147
▁уськытэм	-11.9147
▁Юрттӥс	-11.9148
▁вуыку	-11.9148
▁скал	-11.9148
▁синва	-11.9148
▁тодытонэз	-11.9148
▁подъясь	-11.9148
▁служитӧмы	-11.9149
▁кышкатыны	-11.915
ветлӥсьёсты	-11.915
дчи	-11.915
▁мылкыдыныд	-11.9151
▁вермысь	-11.9151
▁нималод	-11.9151
▁эпидемиологи	-11.9151
▁Марияен	-11.9151
▁веськӧдлысьяс	-11.9151
▁кит	-11.9151
▁сисьмем	-11.9152
▁огъя	-11.9152
▁уджыс	-11.9153
▁курадӟытӥсь	-11.9153
▁урдскозы	-11.9153
▁Ниневияез	-11.9153
▁тодытӥзы	-11.9154
▁пырелэ	-11.9154
▁сьӧлыкатэк	-11.9154
▁чидало	-11.9154
итӧма	-11.9155
▁лыдъялозы	-11.9155
ируйтч	-11.9155
▁тыпыос	-11.9155
▁ньылез	-11.9156
▁юрӟымесь	-11.9156
выныд	-11.9156
▁герӟетъёсын	-11.9157
▁бугыръяськонэз	-11.9157
▁укылтэмесь	-11.9157
▁огнаме	-11.9157
Изгурезь	-11.9157
▁братэд	-11.9157
▁Сергеев	-11.9157
▁улӥськы	-11.9157
▁эшъяськон	-11.9157
▁ньӧлъёсыд	-11.9158
▁атайзы	-11.9158
кылыд	-11.9159
▁возьмасьёсты	-11.9159
▁интыостэ	-11.916
▁музъемамы	-11.916
▁думиськы	-11.916
▁котыртыса	-11.916
▁пӧртӧм	-11.9161
▁бадӟымозь	-11.9161
▁кудӟем	-11.9161
▁пукисьёсты	-11.9161
▁ӝутскем	-11.9162
пкы	-11.9163
▁возиськоз	-11.9163
▁мыж	-11.9163
законэд	-11.9163
▁секытгес	-11.9163
▁луысалыд	-11.9164
▁васькизы	-11.9164
▁тунгона	-11.9166
▁осконэд	-11.9166
чиньыосыныз	-11.9166
▁адӟомы	-11.9166
▁будозы	-11.9167
▁ёросысь	-11.9167
кылӥд	-11.9167
▁черкез	-11.9168
▁лыктомы	-11.9169
▁пуктоды	-11.9169
▁ярамонгес	-11.9169
бӧрдэ	-11.9169
имы	-11.9169
▁лый	-11.9169
Валась	-11.9169
чигтэмын	-11.917
сюлмыд	-11.917
▁пиостэс	-11.917
▁бодызэс	-11.917
▁лякиськизы	-11.917
▁дышетӥзы	-11.917
▁янгышо	-11.9171
▁сэрпалтоз	-11.9171
Городысь	-11.9171
Улвайёс	-11.9172
▁сӥльзэ	-11.9172
▁мыйла	-11.9172
▁Кан	-11.9173
Азвесе	-11.9173
▁кораны	-11.9174
▁кесиз	-11.9174
▁куштоме	-11.9174
▁муниципалитетъяс	-11.9175
Няне	-11.9175
▁кылзӥськелэ	-11.9175
▁пырӧдчис	-11.9176
▁Вазь	-11.9176
Гали	-11.9177
▁ушъясь	-11.9178
▁яратӥськоды	-11.9178
▁вамышто	-11.9178
Дуно	-11.9178
!»*	-11.9178
▁синлысъёс	-11.9179
▁инмаред	-11.9179
▁кутскыкуз	-11.9179
Кышкан	-11.9179
▁нео	-11.918
дзыд	-11.918
▁интыяськизы	-11.918
▁азьветлӥсьёсыз	-11.9181
▁городысьтыз	-11.9182
▁орд	-11.9182
▁пыжъёсын	-11.9183
▁улэмдэс	-11.9183
▁йыружъёсты	-11.9184
▁коралозы	-11.9184
▁Асир	-11.9184
▁тӥязы	-11.9184
дась	-11.9185
▁вӧез	-11.9185
Пӧяськ	-11.9186
▁куалекъялоз	-11.9186
▁вайиськоды	-11.9187
▁кысыны	-11.9187
▁ужамзы	-11.9187
▁дӥсяса	-11.9188
▁тыршиз	-11.9188
▁городъёстэ	-11.9188
▁бырис	-11.9188
▁Пророк	-11.9189
▁чинта	-11.919
▁леком	-11.919
ируйтны	-11.919
▁курадӟонъёсыз	-11.9191
▁азьзы	-11.9191
▁лёганы	-11.9191
Святойёс	-11.9192
▁рам	-11.9192
▁данъялоды	-11.9192
вордэ	-11.9193
▁сюлмаськыса	-11.9194
▁емышъёсын	-11.9195
▁пыдысьтыз	-11.9195
▁ватсаське	-11.9195
▁воземез	-11.9195
▁сантэмасьлы	-11.9196
▁вӧлды	-11.9196
▁данъяломы	-11.9197
Авраамлэн	-11.9198
▁визьдэс	-11.9198
▁сузясько	-11.9199
▁зарнизэс	-11.9201
▁лымшорысь	-11.9201
▁то	-11.9202
▁йыромем	-11.9202
▁гуртъёсы	-11.9203
▁Иворзэ	-11.9203
▁вузэд	-11.9204
▁помкаяс	-11.9204
▁тэрытскон	-11.9204
▁малпанзэс	-11.9204
▁улэмъёсыз	-11.9205
▁лекъяськыса	-11.9205
▁вуылыку	-11.9205
▁лушкаса	-11.9206
▁пукизы	-11.9209
▁суйбыгытэз	-11.9209
▁Ол	-11.921
▁мыномы	-11.921
сял	-11.9211
▁кисьмам	-11.9212
▁шуда	-11.9212
▁кариськомы	-11.9212
Не	-11.9212
▁султоме	-11.9212
иж	-11.9213
▁улляз	-11.9214
▁воыс	-11.9214
▁Симеон	-11.9215
▁Гурезь	-11.9215
▁кеськиз	-11.9215
▁буйгатско	-11.9216
?»*	-11.9216
▁пыроно	-11.9216
▁усьтон	-11.9217
▁лопаткаос	-11.9217
▁ӟичыос	-11.9217
▁могмӧдӧмын	-11.9218
▁гудыртэм	-11.9218
▁дышы	-11.9218
▁черкъёслы	-11.9219
▁юртэд	-11.922
▁чабкисько	-11.9221
юм	-11.9222
огыр	-11.9222
выжыеныз	-11.9223
▁кияс	-11.9224
▁поттысал	-11.9224
▁ньылӥзы	-11.9225
кураськисьёс	-11.9225
▁левъёслэн	-11.9226
эрем	-11.9227
▁городъёссы	-11.9227
Вос	-11.9227
▁бурсӧ	-11.9228
▁тодомы	-11.9228
ИЛ	-11.9228
еяс	-11.9229
▁ошыса	-11.9229
39	-11.923
олно	-11.923
▁сыӵеесь	-11.9231
▁басьтӥды	-11.9231
▁вайисьтэмез	-11.9231
▁узырлыкеныд	-11.9231
▁ваньбурзэс	-11.9231
ляськод	-11.9232
▁югдытон	-11.9232
▁Ве	-11.9233
▁учкытэк	-11.9233
ім	-11.9233
▁нылпиосыдлэн	-11.9234
▁мыйта	-11.9234
ССР	-11.9235
рдэм	-11.9235
▁ӵект	-11.9235
▁Мам	-11.9235
▁шайгуын	-11.9236
▁валатск	-11.9237
▁мертасько	-11.9237
▁муш	-11.9237
▁куштод	-11.9237
▁возьмай	-11.9237
ыкум	-11.9237
▁луысалмы	-11.9238
▁кулытозяз	-11.9238
сйи	-11.9239
20	-11.9239
▁пасез	-11.9239
▁басьтытэк	-11.924
▁ворсаське	-11.9241
▁Эксэйзы	-11.9241
▁утёнэз	-11.9242
▁спортсменъяслы	-11.9242
▁сузяськы	-11.9243
▁радлык	-11.9244
Иисусэз	-11.9244
рку	-11.9245
▁чидаз	-11.9245
▁Ахазлэн	-11.9246
▁ӝуштӥсько	-11.9247
▁кышкатӥсь	-11.9249
Зэ	-11.9249
▁виылӥсько	-11.925
▁котыртэ	-11.9252
кис	-11.9252
▁шаерез	-11.9252
умлы	-11.9253
▁ошъёсты	-11.9254
▁азьветлӥсьёссы	-11.9255
▁Елиуй	-11.9255
▁вермис	-11.9256
▁веська	-11.9258
▁юрттӥськисько	-11.9259
▁быгатӥськоды	-11.9259
▁пос	-11.9259
▁пер	-11.926
Кене	-11.926
▁ортчытымтэ	-11.9262
адем	-11.9263
▁юнматскыса	-11.9264
лывл	-11.9265
▁шедьтэмын	-11.9266
▁кипариспу	-11.9266
▁поттоно	-11.9269
▁дорйӧм	-11.9269
▁сётскы	-11.9269
▁дӥськутэныз	-11.927
▁воӧдчи	-11.927
▁чаклад	-11.927
▁курозы	-11.9272
▁яратонды	-11.9272
▁ӧск	-11.9272
▁адӟоды	-11.9273
▁кивалто	-11.9274
▁тэтч	-11.9274
▁ковм	-11.9274
▁кошкыку	-11.9275
толэзьлэн	-11.9275
▁йырысьтым	-11.9275
▁кожылы	-11.9276
▁костаськ	-11.928
▁адӟылы	-11.9281
▁газ	-11.9281
жильыетъёстэ	-11.9283
Иессейлэн	-11.9284
▁Левийлэн	-11.9284
ӟудон	-11.9284
Тушмонъёсыд	-11.9285
▁пельыны	-11.9285
▁адямиосызлэсь	-11.9286
>197	-11.9288
▁палэнскисьёс	-11.9288
Ӵ	-11.9289
Пиез	-11.9292
▁мыном	-11.9292
▁киысьтызы	-11.9293
▁кужмоят	-11.9294
▁визьтэмъяськон	-11.9295
▁Регион	-11.9295
▁ӵушиськ	-11.9295
▁тырмыто	-11.9296
▁кывй	-11.9297
Сэн	-11.9297
▁адӟыты	-11.9297
▁пумитъяськылӥз	-11.9297
Вералэ	-11.9298
▁вырӟыты	-11.93
▁суреда	-11.9302
▁Седекиялы	-11.9303
медэз	-11.9303
▁поноз	-11.9304
▁утчалод	-11.9306
ӧнъя	-11.9307
якыт	-11.931
▁биням	-11.931
▁лекоме	-11.9313
▁пыремын	-11.9314
▁вераськомы	-11.9315
гурезьёсын	-11.9315
▁Кри	-11.9315
Христослэн	-11.9315
Ӟар	-11.9316
▁кутӥське	-11.9316
юртъеръёс	-11.9316
▁косонъёс	-11.9316
▁берыктоно	-11.9318
укылтэмъёс	-11.9318
▁кым	-11.9319
дурись	-11.9319
▁лыктэмзэ	-11.9321
▁ваемысь	-11.9322
▁кыллисько	-11.9322
▁священникъёсыз	-11.9323
▁духеныд	-11.9323
▁йырйы	-11.9325
▁гурезьёстӥ	-11.9325
атӥсь	-11.9325
▁луонэныз	-11.9327
▁чылкытаты	-11.9327
▁юнматӥзы	-11.9327
▁дышетскон	-11.9329
рся	-11.933
▁ворттыло	-11.9331
▁луонэн	-11.9336
▁султод	-11.9336
▁ваёды	-11.9336
торлы	-11.9337
▁Выль	-11.9338
▁кунын	-11.9338
▁ымнырзы	-11.934
▁мычисько	-11.9342
▁бӧрйы	-11.9343
▁потэлэ	-11.9343
▁вылыз	-11.9344
тулкымъяськ	-11.9344
▁пырод	-11.9344
▁визьнод	-11.9348
Левпи	-11.9348
щитэн	-11.9348
▁тол	-11.9348
▁Алексеев	-11.9351
▁оскисьёслы	-11.9352
▁вырем	-11.9353
Вожпотонэ	-11.9354
▁ӧтид	-11.9355
жды	-11.9358
▁Ко	-11.9358
▁эксэйлыксы	-11.9358
▁тышкало	-11.9359
▁дугдытӥз	-11.9362
▁кузял	-11.9362
соп	-11.9362
▁таласькод	-11.9362
▁Ляльчие	-11.9362
▁ӟечкылан	-11.9363
▁дырзэс	-11.9364
▁учкоз	-11.9365
▁дугдыса	-11.9367
▁мерттыло	-11.9367
енада	-11.9367
▁сётӥськоды	-11.9368
Кивалтӥсьёс	-11.9369
Сӥонлы	-11.9369
▁куашкамез	-11.937
Инд	-11.937
▁Астэ	-11.937
рась	-11.9371
▁ченгешись	-11.9371
▁бодыос	-11.9372
▁быдэсъясьёс	-11.9372
▁порылэ	-11.9373
▁ярамонэз	-11.9376
▁Ӧвӧл	-11.9376
▁ишкалтыса	-11.9376
ех	-11.9383
▁турна	-11.9384
▁вӧчан	-11.9384
▁сӥзиськ	-11.9386
▁уйвӧтын	-11.9387
▁выжем	-11.9388
▁помав	-11.9389
йӧр	-11.9389
▁дасян	-11.9392
Куанерлэсь	-11.9393
▁кылемъёсты	-11.9393
тт	-11.9395
▁вераськыку	-11.9395
▁велӧдчӧм	-11.9399
ъяськод	-11.94
▁Ефремез	-11.94
▁шумпотоно	-11.9401
▁пыргытӥсь	-11.9401
▁кошкылы	-11.9401
▁лэсьтӥсьёсын	-11.9402
▁сутэм	-11.9402
▁вунэтӥсьёс	-11.9403
трен	-11.9405
▁законъёсыз	-11.9406
▁те	-11.9407
тӧма	-11.9407
▁бервылаз	-11.9409
▁лябӟем	-11.9409
▁сыысь	-11.941
▁фараонлэсь	-11.9411
▁кузёзэ	-11.9413
▁уйылӥськ	-11.9414
▁жаляй	-11.9415
▁луонтэмез	-11.9415
ӧриськем	-11.9415
Вылысьты	-11.9416
кеныз	-11.942
▁гожъясь	-11.9421
Сь	-11.9424
▁сьӧдэктӥз	-11.9424
▁Улӥсьлы	-11.9425
▁кариськозы	-11.9425
▁луэмъёс	-11.9425
▁вато	-11.9427
Сьӧлыко	-11.9434
▁каз	-11.9435
лонлэн	-11.9436
▁тушмонъёслэн	-11.9436
▁бурмытэм	-11.9438
▁фондӧ	-11.9439
▁муын	-11.944
▁шурысь	-11.9441
кулыкуз	-11.9442
▁вераськоды	-11.9442
▁Павеллэн	-11.9442
▁бырыло	-11.9444
▁валэктоз	-11.9444
▁збыль	-11.9445
ӟи	-11.9446
▁медооссэ	-11.9447
ель	-11.9448
▁каргасьёс	-11.945
ьевич	-11.9451
▁лэзиськиз	-11.9451
▁сорт	-11.9455
мъёсыз	-11.9457
▁уллёезлы	-11.9458
▁лябӟиз	-11.9459
▁тырт	-11.946
▁нылпиоссылэсь	-11.9461
Йыркур	-11.9463
▁ӟечъёсыз	-11.9463
адӟы	-11.9463
Вӧсяськыкуд	-11.9465
▁лӧсял	-11.9467
гудӟиськ	-11.9468
▁узырлыкед	-11.9468
ымме	-11.9469
▁Тэ	-11.9472
лика	-11.9474
▁Сав	-11.9479
ымтэм	-11.9481
▁ӝутод	-11.9483
▁поттэмысь	-11.9483
онме	-11.9484
▁сьӧрысь	-11.9484
▁капкаяз	-11.9484
▁шедьтӥсь	-11.9484
Синвуэ	-11.9487
Шуиз	-11.9491
▁кылъёсыд	-11.9492
▁шобырскыса	-11.9493
▁вуод	-11.9498
пыдъёсмы	-11.9503
Кута	-11.9505
▁ньылозы	-11.9505
Шонерлыклэн	-11.9509
▁муртъёстэ	-11.9509
▁вази	-11.9509
амыш	-11.951
▁гурезьёсысь	-11.9511
▁туган	-11.9516
зис	-11.9526
▁люкиськыл	-11.9527
▁тупатскы	-11.9528
▁нь	-11.953
▁пӧйшурез	-11.9532
▁чиньыосы	-11.9533
▁сётонзы	-11.9535
▁муртъёссы	-11.9541
▁сӧн	-11.9542
▁новл	-11.9544
ахир	-11.9547
▁вӧсяськисьёслы	-11.9548
Куин	-11.9555
▁чусомыт	-11.9556
▁петкӧд	-11.956
▁сюрыса	-11.9566
▁чилекъям	-11.9566
▁вамышъяло	-11.9569
▁улӥысь	-11.9571
▁юрттӥськисьёс	-11.9572
▁нуллэм	-11.9573
овлы	-11.9574
▁кулӥзы	-11.9575
▁шумпотонзэ	-11.9578
▁ӝужаку	-11.9578
▁поттылӥд	-11.958
▁шуэмез	-11.958
▁улонад	-11.9582
▁дырмы	-11.9582
▁воргоронъёслы	-11.9582
овская	-11.9585
▁Ну	-11.9587
▁районъяс	-11.9588
▁кариды	-11.9589
▁олӧ	-11.9593
Мо	-11.9594
▁адӟиды	-11.9594
ожен	-11.9598
▁эмъясько	-11.9599
▁кост	-11.9602
▁шӧдӥсько	-11.961
▁сюдэм	-11.9612
▁думоз	-11.9616
▁пумитъяськисьёс	-11.9621
▁тушмонъёсызлэн	-11.9624
▁зе	-11.9626
▁туба	-11.9628
▁лэзёзы	-11.9628
▁возьматозы	-11.9629
▁виылӥд	-11.9629
ранъяс	-11.9635
мувыръёс	-11.9638
▁кожа	-11.9638
▁ӵышкись	-11.9638
▁городъёсад	-11.9644
▁пазьгид	-11.9644
▁ултӥямъёс	-11.9648
▁вылтӥяськем	-11.965
▁Огназл	-11.9656
▁ваньбурзы	-11.9657
воясӧ	-11.966
ӧрсьӧн	-11.9662
ёсын	-11.9669
▁мерттылӥ	-11.9669
▁синмаськ	-11.967
▁секытэз	-11.967
▁кужымо	-11.967
▁гранатпу	-11.9673
Ае	-11.9676
кузьымъёстэс	-11.9677
▁кылзыса	-11.9684
Кыдёк	-11.9685
▁вордскон	-11.9685
2)	-11.9689
▁будослы	-11.9689
▁вирын	-11.969
Вой	-11.9691
имозь	-11.9691
▁ӵушо	-11.9692
▁Ид	-11.9695
▁ветлӥсьёслы	-11.9696
фан	-11.9701
талалэ	-11.9702
▁пуктас	-11.9705
▁пиосме	-11.9712
▁пиме	-11.9716
кае	-11.9719
ани	-11.972
▁вераме	-11.973
возьёс	-11.9732
Духен	-11.9732
вынъёссы	-11.9733
йылы	-11.9742
▁саламъёсыныз	-11.9746
▁кивалтӥсьёсыныз	-11.9746
Данъясько	-11.9746
шектэмез	-11.9749
рысь	-11.9752
сьсэ	-11.9765
ччис	-11.9765
▁сӥнагогаос	-11.9767
▁вожпот	-11.9768
▁сюрзэ	-11.9769
▁яратэмдэ	-11.977
▁вуэмын	-11.9776
▁виылӥ	-11.9777
▁священникъёслы	-11.978
▁кылдытӥзы	-11.978
▁шыкысъёсысьты	-11.978
ворт	-11.9782
▁сётӥды	-11.9788
▁вуылы	-11.9789
▁пырид	-11.979
▁вошъяськись	-11.9799
▁жильыосы	-11.9799
▁кылзӥськоз	-11.9807
ожмаськисьёсыз	-11.9811
▁ватылы	-11.9813
▁урдскы	-11.9816
кияс	-11.9824
став	-11.9832
▁мыскылля	-11.9832
асыв	-11.9835
зьлан	-11.9836
екчи	-11.9838
▁республикаӧ	-11.9844
▁сюрыку	-11.9846
▁улэлэ	-11.9848
▁воліс	-11.9854
▁коркаосс	-11.9855
▁кысӥз	-11.9856
мугоры	-11.9865
▁ӵышкы	-11.9869
▁быдтозы	-11.9876
▁вӧсяськид	-11.9876
▁вордӥськизы	-11.9878
овт	-11.9879
аве	-11.9883
▁лӧптыл	-11.9883
▁пельыным	-11.9887
Малпам	-11.9888
ымо	-11.9892
▁шонаськ	-11.9898
▁ветлӥ	-11.9899
▁сьӧра	-11.99
еж	-11.9901
бусыысьтыз	-11.9906
куашетыса	-11.9907
▁усьыку	-11.9921
▁ча	-11.9922
▁стрӧитч	-11.9923
▁берыктӥськыса	-11.9934
▁Моисейлэсь	-11.9934
▁чо	-11.994
Берытскы	-11.994
▁пиысь	-11.9944
▁лэсьтысал	-11.9946
кыӵесъёс	-11.9949
▁вием	-11.9949
▁улӟ	-11.9951
исьтэмъёслы	-11.9951
▁вераськиськод	-11.9952
▁шуӧм	-11.9955
▁ноныосы	-11.9956
лыкты	-11.9958
▁тӥрлыктэ	-11.9965
ысалыд	-11.9968
монэн	-11.9971
▁сюло	-11.9971
▁шум	-11.9972
▁дышетскы	-11.9975
▁тушмонъёсылы	-11.9977
▁кошкисько	-11.9978
▁батыръёс	-11.998
леклык	-11.9987
▁октӥсь	-11.9988
▁выроз	-11.9991
▁Калыке	-11.9991
▁шумпотӥ	-11.9992
▁книгаысьтыз	-11.9997
▁инт	-12.0004
бырем	-12.0005
сйы	-12.0006
▁верман	-12.0013
▁Ел	-12.0017
▁сюлмаськоз	-12.0021
-1	-12.0021
▁валъёссэс	-12.0027
▁кузёяськоз	-12.003
Сьӧлыктэмезлэн	-12.0031
▁сӥзёнъёс	-12.0033
▁каръясько	-12.0035
▁ком	-12.0038
▁валатскиз	-12.005
▁черъёс	-12.0056
ӧк	-12.0057
▁милем	-12.0058
▁пукиськод	-12.0061
▁лэсьтэмед	-12.007
Сульдэръёс	-12.0072
▁вуосын	-12.0072
▁пӧзьтэ	-12.0076
изь	-12.0077
иськиз	-12.0078
▁юисько	-12.0078
▁музъемед	-12.0089
▁кӧтпушк	-12.0092
▁вожпотонэзлы	-12.0099
▁азинлыке	-12.0099
▁Султы	-12.0104
▁Ö	-12.0104
Палэн	-12.0106
▁емыштэ	-12.0106
▁луис	-12.0109
▁кенос	-12.0112
ӧмыс	-12.0113
▁дырысьтыд	-12.0114
▁васькисьёс	-12.0116
▁кылзӥськисьёс	-12.0124
▁сосудэ	-12.0124
▁книгая	-12.0126
▁утялтэ	-12.013
▁кисьтӥськем	-12.0135
Гр	-12.0137
▁сётэмзэ	-12.0137
тӥды	-12.0138
▁жӧ	-12.0139
▁валатозя	-12.014
▁тыриськод	-12.0144
▁сӧвмӧдӧ	-12.0155
льн	-12.0156
▁Дан	-12.0162
▁поттыку	-12.0165
▁быдэсъясько	-12.0166
сиг	-12.0167
▁радъян	-12.0167
▁ставка	-12.0168
сяв	-12.0171
мезъя	-12.0183
▁эзыло	-12.0192
вося	-12.0194
пастука	-12.0195
▁вылысеныз	-12.0196
▁модосъёс	-12.0197
▁кизьы	-12.0198
▁ядз	-12.0201
▁каланчаоссэ	-12.0201
пред	-12.0209
▁примитч	-12.0221
▁вералод	-12.0224
влы	-12.0233
▁мо	-12.0243
▁порт	-12.0243
▁дӥсьсэ	-12.0244
▁басьтӥськод	-12.0269
ча	-12.0269
▁берытскылӥз	-12.027
▁чеберъянъёссэ	-12.0273
сьӧлыкъёсыны	-12.0274
▁ян	-12.0275
▁ымдуръёсы	-12.0277
▁вакытъёсы	-12.0287
▁кужмоез	-12.029
Гоз	-12.0311
▁гӧгӧрвоа	-12.0315
▁пыран	-12.0317
▁тулкымъёссэ	-12.032
▁потымтэ	-12.0332
Законъёсыдл	-12.0333
ужъёс	-12.0338
▁висъетъёс	-12.0338
Сюлэмдэ	-12.0345
▁гурдэ	-12.0347
таркаськон	-12.0349
▁юртад	-12.0354
▁данъяськон	-12.0356
офе	-12.0358
кей	-12.0366
зьыны	-12.0368
пыдыны	-12.0369
тушмонэ	-12.0374
▁ньылы	-12.0379
▁дэремзэ	-12.0385
тра	-12.0391
ыштны	-12.0393
▁вайыло	-12.0394
Пот	-12.0404
▁ӵоге	-12.0407
ерлэн	-12.0409
▁эс	-12.0412
▁улондэ	-12.0412
синтэмъёс	-12.0414
▁берыктыку	-12.0415
Ше	-12.0421
▁судме	-12.0427
▁куасьтӥ	-12.0428
мит	-12.0429
лекъяськонэн	-12.043
▁ушъяськонэ	-12.0431
▁куанерлэсь	-12.0445
▁виыса	-12.0448
ылыса	-12.0449
▁сётом	-12.0452
▁вырӟоз	-12.0453
▁югдыт	-12.0457
дчы	-12.0466
▁Ни	-12.0468
ворд	-12.0469
▁луонлы	-12.0469
▁вӧсяськоз	-12.0482
▁ортчыкуз	-12.0485
▁шулдыръяськонэн	-12.0489
▁церемонияы	-12.0495
пла	-12.0498
пуньы	-12.0504
▁ворсан	-12.0506
▁пӧйшурлы	-12.0515
нодтэм	-12.052
Бӧрдо	-12.0523
▁каньсыраз	-12.0534
пиньёс	-12.0542
ыосыд	-12.0542
▁борддоръёсы	-12.0557
▁тэры	-12.057
▁гумыосы	-12.0571
▁юзмато	-12.0571
▁лэзьылӥ	-12.0575
▁пыриськоз	-12.0584
▁уробооссэ	-12.0587
уф	-12.0589
▁Виры	-12.059
▁кажитчы	-12.0592
▁сп	-12.0596
▁лёгаськ	-12.0601
▁кышномуртлы	-12.0602
удъёссэ	-12.0604
▁чигиськи	-12.0611
▁пичиос	-12.0612
нёжалъёс	-12.062
Чи	-12.0629
▁ӧпкельы	-12.0639
▁синъяс	-12.0642
онэд	-12.0647
▁Тылы	-12.0648
▁малпась	-12.0655
▁изисько	-12.0659
▁зӥръян	-12.0667
ъяськиськоды	-12.0674
▁кеносъёсы	-12.0675
ръё	-12.0682
▁дасяськ	-12.0685
▁каронъёстэ	-12.0707
▁кожиз	-12.0713
▁Одоллам	-12.0732
▁муртъёсыны	-12.0736
ёстэ	-12.0745
▁вазиськон	-12.0745
лэзь	-12.0755
▁вортты	-12.0757
▁сюлмаськи	-12.0758
медъя	-12.0758
▁ставны	-12.0759
ляльчиостэ	-12.0769
▁пин	-12.0776
▁мынӥськод	-12.0791
Атаез	-12.0808
▁пыдесъёст	-12.0812
▁шекъёсы	-12.0814
▁учкись	-12.0827
тол	-12.0828
▁усись	-12.0831
асьны	-12.084
▁Маг	-12.0851
▁сиеме	-12.0853
тэз	-12.086
▁бакчаме	-12.086
лэз	-12.0874
тӥськем	-12.0879
чев	-12.0882
▁Индӧдӧ	-12.0895
3	-12.0898
нодэн	-12.0918
▁лекез	-12.092
ушъяны	-12.0929
скыса	-12.094
▁ялӥз	-12.0941
▁утёно	-12.095
юриськон	-12.0957
ылын	-12.0963
черекъям	-12.0969
▁198	-12.0975
▁лыдӟ	-12.0978
усьтысал	-12.0985
▁пӧрмытэм	-12.0985
▁Ро	-12.0986
▁возьысал	-12.1001
▁синйылтэ	-12.1005
рыт	-12.1016
▁тодонэ	-12.1017
четлык	-12.102
дыдыке	-12.103
▁кенере	-12.1032
▁пыри	-12.1034
▁тунгонъёс	-12.1042
▁вераку	-12.1064
Кышное	-12.1067
Пыдъёсы	-12.1073
Арииллы	-12.1077
Жуги	-12.1077
ъясӧ	-12.1081
Синтэм	-12.1082
▁возьмасько	-12.1082
Туал	-12.1083
▁анайдэ	-12.1099
▁усточиос	-12.1106
▁ӝожом	-12.1106
акъёс	-12.1106
ысалмы	-12.1116
▁бырысал	-12.1118
мылкыддэ	-12.1119
нал	-12.1137
▁саптась	-12.1142
▁оскиськонме	-12.1153
Берпум	-12.116
ськымтэ	-12.1166
мк	-12.1169
ёслэсь	-12.1186
▁валантэм	-12.1196
▁ушъяськоз	-12.1198
мал	-12.12
▁сектад	-12.1201
▁ӵыжатоз	-12.121
▁чаклам	-12.1211
це	-12.1211
00	-12.1216
иськись	-12.122
▁ба	-12.1236
▁юиз	-12.1237
▁Чи	-12.1238
енко	-12.124
юр	-12.1244
▁субботае	-12.1247
▁пазьгиськем	-12.125
▁министерстволы	-12.1256
▁чилекъянъёс	-12.1261
Востэм	-12.1269
Лябӟ	-12.127
▁сюмык	-12.127
капкаос	-12.1272
валаса	-12.1277
▁курадӟытэ	-12.128
▁сётӥсьёсы	-12.1285
▁шормуӵъёсы	-12.1288
▁полк	-12.1289
Инмез	-12.1298
▁шыръёс	-12.1301
▁юзмат	-12.1305
▁басмае	-12.131
▁лобӟы	-12.1316
ӥд	-12.1318
▁шуям	-12.1324
валасьтэмъёс	-12.1331
▁ветлылӥ	-12.1334
▁ӝуткась	-12.1335
яса	-12.1337
▁четлыкъёс	-12.1344
▁канжаськ	-12.1357
ъяло	-12.1358
пельтэмъёс	-12.136
▁мугорме	-12.1361
▁ӵынды	-12.1366
▁ӵыжато	-12.1367
▁лампадаос	-12.1377
Берпуме	-12.1388
книт	-12.1394
▁куштӥсько	-12.1395
▁яратӥд	-12.1411
▁югдыты	-12.1412
▁интыяськемъёс	-12.1423
▁быр	-12.1438
яды	-12.1439
дышетӥсьёсы	-12.1452
▁катьтэммиз	-12.1453
▁пегӟ	-12.1457
▁йыръёс	-12.1465
▁бышкал	-12.147
▁Во	-12.1474
▁йӧтӥськ	-12.1475
Жуг	-12.1484
▁пушкысьты	-12.149
▁люке	-12.1495
▁пыкыло	-12.1497
рал	-12.1504
▁чеберлыке	-12.1505
▁арбериен	-12.1506
▁чабк	-12.1521
▁пумоз	-12.1523
саламъёсын	-12.1534
▁султыты	-12.1546
▁лыдӧ	-12.156
▁кудӟыт	-12.1568
Курадӟонъёс	-12.1575
▁молот	-12.1593
▁пыжын	-12.1601
▁пуксь	-12.1601
▁йыръёсыныз	-12.161
▁улэмъёсм	-12.1612
Куак	-12.1637
Тӥр	-12.1651
▁муна	-12.1653
Петре	-12.1662
скы	-12.1663
▁ӵогиськ	-12.1664
▁лысвузэ	-12.1682
▁улэмъёстэ	-12.169
дурбасьтон	-12.1696
мзыя	-12.1697
▁дӥськутме	-12.1703
▁пушъетъёсы	-12.1716
Кузёйыр	-12.1737
▁мича	-12.176
▁пуктылӥ	-12.1777
тӥллям	-12.1791
▁турка	-12.1791
тӥськыса	-12.1798
Луд	-12.1804
одӥгтэм	-12.1829
Нюлэск	-12.1831
Уйвӧта	-12.1834
ылӥллям	-12.1843
▁пасьёсы	-12.1862
газ	-12.1867
ыръяса	-12.1874
ыль	-12.1879
▁фонд	-12.1896
▁тӥялоз	-12.1912
▁эксэйлыксэ	-12.1916
▁виылэм	-12.1929
▁ваньбуреныз	-12.1936
▁ватсаз	-12.1946
▁шумпотӥсь	-12.1962
ечен	-12.1971
▁пуктыса	-12.1994
▁мозмытски	-12.1995
▁кажитч	-12.2
тубыны	-12.2017
енымы	-12.2021
▁чаб	-12.2037
▁люкаськемъёс	-12.2038
▁инмаре	-12.2039
▁Ермо	-12.2046
▁кутча	-12.2052
▁курбонъёстэ	-12.2054
кылдытыны	-12.2055
синтэм	-12.2062
▁сектаз	-12.2073
▁бурмытӥ	-12.2079
Коркае	-12.2084
▁кутыло	-12.2084
ъёсысьтыды	-12.2085
нокинэ	-12.209
▁азвесе	-12.2091
▁йыроми	-12.2109
гач	-12.2113
▁тӧлэн	-12.2116
лӥят	-12.2129
▁васькыса	-12.2137
кат	-12.2153
ысьтымы	-12.2168
▁утчасьтэм	-12.2168
овӧс	-12.2171
луныс	-12.2174
визьзэ	-12.2174
96	-12.2181
▁тодэмез	-12.219
судэз	-12.2195
▁курадӟо	-12.2212
Бусыос	-12.2215
▁куасьтӥсь	-12.2222
Гам	-12.2227
▁сяськаяськи	-12.2233
Наа	-12.2235
▁шукке	-12.2239
▁каръя	-12.2247
сьӧлыкъёсы	-12.225
▁йырсие	-12.2255
▁Ал	-12.2261
джыд	-12.227
Ӝож	-12.2271
▁вуттӥсь	-12.2274
Малпа	-12.2285
шкалтэм	-12.2288
▁думиськ	-12.2295
омъяс	-12.2298
Кос	-12.2301
Кельт	-12.2312
асьёсты	-12.2313
▁гӧгӧрво	-12.232
▁пыртоз	-12.2323
рат	-12.2347
▁пыдесъясько	-12.2348
▁урдскыл	-12.2361
▁пазьги	-12.2362
дышт	-12.2363
йӧза	-12.2364
аж	-12.2389
▁пӧрмытӥсь	-12.2395
Сылы	-12.24
▁вайысал	-12.241
итра	-12.2419
▁(202	-12.2453
▁улляд	-12.2457
▁шобретэ	-12.2458
▁кузёясько	-12.2463
▁суйбыгытъёс	-12.2468
льгы	-12.2469
валасьёс	-12.2476
лки	-12.2481
▁ушъяськон	-12.2488
▁юӧрта	-12.2493
▁сюлмасько	-12.2501
чаклаз	-12.2501
▁вужерен	-12.2529
▁радъя	-12.2537
каыс	-12.2543
▁лӧсьӧда	-12.2547
▁Ен	-12.2557
▁утялт	-12.2561
Священник	-12.2569
фу	-12.2571
▁полкъёс	-12.2598
▁лыдӟись	-12.2603
▁администрацияӧ	-12.2604
амъёс	-12.2605
▁куакъёс	-12.261
▁вазиськод	-12.2613
араме	-12.2625
▁верма	-12.2627
▁выж	-12.2648
эменыз	-12.2656
▁ыжъёссэ	-12.2664
Египетэ	-12.2668
ужан	-12.267
▁ошъёссэ	-12.2673
тышка	-12.2691
8	-12.2701
▁вузэм	-12.2708
▁сульдэре	-12.2712
▁кутӥськи	-12.2716
лыкум	-12.2718
▁пуртъёс	-12.2723
кайгулы	-12.2726
асян	-12.273
кошкеме	-12.2732
тупа	-12.2744
▁каремед	-12.2745
▁люкетэн	-12.2746
пот	-12.2762
▁выро	-12.2762
сяна	-12.2779
▁ӵыжект	-12.2793
пеллё	-12.2793
пыдтыш	-12.2794
▁велӧдӧм	-12.2795
▁курем	-12.2799
▁кошк	-12.2801
сьтыд	-12.281
▁вылӥлык	-12.2811
▁торк	-12.2813
Люкаськ	-12.2813
▁тарказ	-12.2816
▁пичия	-12.2819
вор	-12.282
еяын	-12.2821
емысь	-12.2834
нитл	-12.2844
▁куашеты	-12.2853
▁бӧрдӥсько	-12.2858
рам	-12.2859
Нылпиосы	-12.2865
келэ	-12.2869
▁каръёсы	-12.2869
▁кольчч	-12.287
▁палэнтӥсько	-12.2879
▁лӧпты	-12.2893
▁кемалас	-12.2913
▁донъя	-12.2916
▁лушкаськ	-12.2923
▁лыдъяз	-12.2925
вӧя	-12.2932
▁мускытат	-12.2938
▁ворсэтъёсс	-12.2941
▁берыктӥськем	-12.2946
▁мерта	-12.295
▁вуттӥ	-12.2972
вуэн	-12.2975
▁люканэ	-12.2978
таос	-12.2979
обась	-12.2981
▁Выл	-12.2984
▁калтонэ	-12.2987
▁мозмытэмъёс	-12.299
▁мыч	-12.2996
▁мычи	-12.3013
ута	-12.3017
пушкыз	-12.3022
йств	-12.3026
Кылзӥськись	-12.3032
▁кылылэ	-12.3057
уб	-12.3058
▁кырӟась	-12.306
ствояс	-12.3062
▁Ле	-12.3067
▁суред	-12.3071
▁пельт	-12.3072
▁шыкысъёс	-12.3073
▁нуи	-12.3074
данлыклэн	-12.3077
▁мышкы	-12.3078
Пыдын	-12.3085
бе	-12.3092
▁юрнуӧдысь	-12.3092
гуртъёсыз	-12.3093
▁Тодӥсь	-12.3093
▁вӧзй	-12.3095
▁кырӟанэ	-12.3099
▁уллёен	-12.3103
▁керетонъёс	-12.3114
Атайёсы	-12.3119
утыны	-12.3121
анэз	-12.3121
ӟем	-12.3131
Кинъёс	-12.3153
▁шормуӵ	-12.3166
Вӧся	-12.3169
лыкъёссэс	-12.317
пиос	-12.3188
▁будэтӥсь	-12.3194
▁татч	-12.3197
▁эскерисько	-12.3209
эксэйёслэсь	-12.3221
▁ӵышк	-12.3222
▁кусъёссэ	-12.3223
▁лякиськ	-12.3225
скизы	-12.3226
▁ялоз	-12.3234
гижло	-12.3238
Вавилонэ	-12.3241
▁аръёссэ	-12.3242
▁пӧртма	-12.3245
▁нуы	-12.3263
▁уксё	-12.3266
Воргорон	-12.3267
▁лобӟ	-12.3269
▁бама	-12.3276
▁поттылӥ	-12.328
олог	-12.3282
▁тыршоз	-12.3286
[...]
